node {
  name: "data/wav_filename"
  op: "Placeholder"
  attr {
    key: "dtype"
    value {
      type: DT_STRING
    }
  }
  attr {
    key: "shape"
    value {
      shape {
      }
    }
  }
}
node {
  name: "data/ReadFile"
  op: "ReadFile"
  input: "data/wav_filename"
}
node {
  name: "data/DecodeWav"
  op: "DecodeWav"
  input: "data/ReadFile"
  attr {
    key: "desired_channels"
    value {
      i: 1
    }
  }
  attr {
    key: "desired_samples"
    value {
      i: 12800
    }
  }
}
node {
  name: "data/foreground_volume"
  op: "Placeholder"
  attr {
    key: "dtype"
    value {
      type: DT_FLOAT
    }
  }
  attr {
    key: "shape"
    value {
      shape {
      }
    }
  }
}
node {
  name: "data/Mul"
  op: "Mul"
  input: "data/DecodeWav"
  input: "data/foreground_volume"
  attr {
    key: "T"
    value {
      type: DT_FLOAT
    }
  }
}
node {
  name: "data/time_shift_padding"
  op: "Placeholder"
  attr {
    key: "dtype"
    value {
      type: DT_INT32
    }
  }
  attr {
    key: "shape"
    value {
      shape {
        dim {
          size: 2
        }
        dim {
          size: 2
        }
      }
    }
  }
}
node {
  name: "data/time_shift_offset"
  op: "Placeholder"
  attr {
    key: "dtype"
    value {
      type: DT_INT32
    }
  }
  attr {
    key: "shape"
    value {
      shape {
        dim {
          size: 2
        }
      }
    }
  }
}
node {
  name: "data/Pad"
  op: "Pad"
  input: "data/Mul"
  input: "data/time_shift_padding"
  attr {
    key: "T"
    value {
      type: DT_FLOAT
    }
  }
  attr {
    key: "Tpaddings"
    value {
      type: DT_INT32
    }
  }
}
node {
  name: "data/Slice/size"
  op: "Const"
  attr {
    key: "dtype"
    value {
      type: DT_INT32
    }
  }
  attr {
    key: "value"
    value {
      tensor {
        dtype: DT_INT32
        tensor_shape {
          dim {
            size: 2
          }
        }
        tensor_content: "\0002\000\000\377\377\377\377"
      }
    }
  }
}
node {
  name: "data/Slice"
  op: "Slice"
  input: "data/Pad"
  input: "data/time_shift_offset"
  input: "data/Slice/size"
  attr {
    key: "Index"
    value {
      type: DT_INT32
    }
  }
  attr {
    key: "T"
    value {
      type: DT_FLOAT
    }
  }
}
node {
  name: "data/background_data"
  op: "Placeholder"
  attr {
    key: "dtype"
    value {
      type: DT_FLOAT
    }
  }
  attr {
    key: "shape"
    value {
      shape {
        dim {
          size: 12800
        }
        dim {
          size: 1
        }
      }
    }
  }
}
node {
  name: "data/background_volume"
  op: "Placeholder"
  attr {
    key: "dtype"
    value {
      type: DT_FLOAT
    }
  }
  attr {
    key: "shape"
    value {
      shape {
      }
    }
  }
}
node {
  name: "data/Mul_1"
  op: "Mul"
  input: "data/background_data"
  input: "data/background_volume"
  attr {
    key: "T"
    value {
      type: DT_FLOAT
    }
  }
}
node {
  name: "data/Add"
  op: "Add"
  input: "data/Mul_1"
  input: "data/Slice"
  attr {
    key: "T"
    value {
      type: DT_FLOAT
    }
  }
}
node {
  name: "data/clip_by_value/Minimum/y"
  op: "Const"
  attr {
    key: "dtype"
    value {
      type: DT_FLOAT
    }
  }
  attr {
    key: "value"
    value {
      tensor {
        dtype: DT_FLOAT
        tensor_shape {
        }
        float_val: 1.0
      }
    }
  }
}
node {
  name: "data/clip_by_value/Minimum"
  op: "Minimum"
  input: "data/Add"
  input: "data/clip_by_value/Minimum/y"
  attr {
    key: "T"
    value {
      type: DT_FLOAT
    }
  }
}
node {
  name: "data/clip_by_value/y"
  op: "Const"
  attr {
    key: "dtype"
    value {
      type: DT_FLOAT
    }
  }
  attr {
    key: "value"
    value {
      tensor {
        dtype: DT_FLOAT
        tensor_shape {
        }
        float_val: -1.0
      }
    }
  }
}
node {
  name: "data/clip_by_value"
  op: "Maximum"
  input: "data/clip_by_value/Minimum"
  input: "data/clip_by_value/y"
  attr {
    key: "T"
    value {
      type: DT_FLOAT
    }
  }
}
node {
  name: "data/AudioSpectrogram"
  op: "AudioSpectrogram"
  input: "data/clip_by_value"
  attr {
    key: "magnitude_squared"
    value {
      b: true
    }
  }
  attr {
    key: "stride"
    value {
      i: 160
    }
  }
  attr {
    key: "window_size"
    value {
      i: 480
    }
  }
}
node {
  name: "data/ExpandDims/dim"
  op: "Const"
  attr {
    key: "dtype"
    value {
      type: DT_INT32
    }
  }
  attr {
    key: "value"
    value {
      tensor {
        dtype: DT_INT32
        tensor_shape {
        }
        int_val: -1
      }
    }
  }
}
node {
  name: "data/ExpandDims"
  op: "ExpandDims"
  input: "data/AudioSpectrogram"
  input: "data/ExpandDims/dim"
  attr {
    key: "T"
    value {
      type: DT_FLOAT
    }
  }
  attr {
    key: "Tdim"
    value {
      type: DT_INT32
    }
  }
}
node {
  name: "data/spectrogram/tag"
  op: "Const"
  attr {
    key: "dtype"
    value {
      type: DT_STRING
    }
  }
  attr {
    key: "value"
    value {
      tensor {
        dtype: DT_STRING
        tensor_shape {
        }
        string_val: "data/spectrogram"
      }
    }
  }
}
node {
  name: "data/spectrogram"
  op: "ImageSummary"
  input: "data/spectrogram/tag"
  input: "data/ExpandDims"
  attr {
    key: "T"
    value {
      type: DT_FLOAT
    }
  }
  attr {
    key: "bad_color"
    value {
      tensor {
        dtype: DT_UINT8
        tensor_shape {
          dim {
            size: 4
          }
        }
        int_val: 255
        int_val: 0
        int_val: 0
        int_val: 255
      }
    }
  }
  attr {
    key: "max_images"
    value {
      i: 1
    }
  }
}
node {
  name: "data/Mfcc"
  op: "Mfcc"
  input: "data/AudioSpectrogram"
  input: "data/DecodeWav:1"
  attr {
    key: "dct_coefficient_count"
    value {
      i: 40
    }
  }
  attr {
    key: "filterbank_channel_count"
    value {
      i: 40
    }
  }
  attr {
    key: "lower_frequency_limit"
    value {
      f: 20.0
    }
  }
  attr {
    key: "upper_frequency_limit"
    value {
      f: 4000.0
    }
  }
}
node {
  name: "data/ExpandDims_1/dim"
  op: "Const"
  attr {
    key: "dtype"
    value {
      type: DT_INT32
    }
  }
  attr {
    key: "value"
    value {
      tensor {
        dtype: DT_INT32
        tensor_shape {
        }
        int_val: -1
      }
    }
  }
}
node {
  name: "data/ExpandDims_1"
  op: "ExpandDims"
  input: "data/Mfcc"
  input: "data/ExpandDims_1/dim"
  attr {
    key: "T"
    value {
      type: DT_FLOAT
    }
  }
  attr {
    key: "Tdim"
    value {
      type: DT_INT32
    }
  }
}
node {
  name: "data/mfcc_1/tag"
  op: "Const"
  attr {
    key: "dtype"
    value {
      type: DT_STRING
    }
  }
  attr {
    key: "value"
    value {
      tensor {
        dtype: DT_STRING
        tensor_shape {
        }
        string_val: "data/mfcc_1"
      }
    }
  }
}
node {
  name: "data/mfcc_1"
  op: "ImageSummary"
  input: "data/mfcc_1/tag"
  input: "data/ExpandDims_1"
  attr {
    key: "T"
    value {
      type: DT_FLOAT
    }
  }
  attr {
    key: "bad_color"
    value {
      tensor {
        dtype: DT_UINT8
        tensor_shape {
          dim {
            size: 4
          }
        }
        int_val: 255
        int_val: 0
        int_val: 0
        int_val: 255
      }
    }
  }
  attr {
    key: "max_images"
    value {
      i: 1
    }
  }
}
node {
  name: "data/ExpandDims_2/dim"
  op: "Const"
  attr {
    key: "dtype"
    value {
      type: DT_INT32
    }
  }
  attr {
    key: "value"
    value {
      tensor {
        dtype: DT_INT32
        tensor_shape {
        }
        int_val: -1
      }
    }
  }
}
node {
  name: "data/ExpandDims_2"
  op: "ExpandDims"
  input: "data/Mfcc"
  input: "data/ExpandDims_2/dim"
  attr {
    key: "T"
    value {
      type: DT_FLOAT
    }
  }
  attr {
    key: "Tdim"
    value {
      type: DT_INT32
    }
  }
}
node {
  name: "data/MFCC_Histogram/tag"
  op: "Const"
  attr {
    key: "dtype"
    value {
      type: DT_STRING
    }
  }
  attr {
    key: "value"
    value {
      tensor {
        dtype: DT_STRING
        tensor_shape {
        }
        string_val: "data/MFCC_Histogram"
      }
    }
  }
}
node {
  name: "data/MFCC_Histogram"
  op: "HistogramSummary"
  input: "data/MFCC_Histogram/tag"
  input: "data/ExpandDims_2"
  attr {
    key: "T"
    value {
      type: DT_FLOAT
    }
  }
}
node {
  name: "data/Merge/MergeSummary"
  op: "MergeSummary"
  input: "data/spectrogram"
  input: "data/mfcc_1"
  input: "data/MFCC_Histogram"
  attr {
    key: "N"
    value {
      i: 3
    }
  }
}
node {
  name: "fingerprint_input"
  op: "Placeholder"
  attr {
    key: "dtype"
    value {
      type: DT_FLOAT
    }
  }
  attr {
    key: "shape"
    value {
      shape {
        dim {
          size: -1
        }
        dim {
          size: 3120
        }
      }
    }
  }
}
node {
  name: "dropout_prob"
  op: "Placeholder"
  attr {
    key: "dtype"
    value {
      type: DT_FLOAT
    }
  }
  attr {
    key: "shape"
    value {
      shape {
        unknown_rank: true
      }
    }
  }
}
node {
  name: "Reshape/shape"
  op: "Const"
  attr {
    key: "dtype"
    value {
      type: DT_INT32
    }
  }
  attr {
    key: "value"
    value {
      tensor {
        dtype: DT_INT32
        tensor_shape {
          dim {
            size: 4
          }
        }
        tensor_content: "\377\377\377\377N\000\000\000(\000\000\000\001\000\000\000"
      }
    }
  }
}
node {
  name: "Reshape"
  op: "Reshape"
  input: "fingerprint_input"
  input: "Reshape/shape"
  attr {
    key: "T"
    value {
      type: DT_FLOAT
    }
  }
  attr {
    key: "Tshape"
    value {
      type: DT_INT32
    }
  }
}
node {
  name: "Const"
  op: "Const"
  attr {
    key: "dtype"
    value {
      type: DT_FLOAT
    }
  }
  attr {
    key: "value"
    value {
      tensor {
        dtype: DT_FLOAT
        tensor_shape {
          dim {
            size: 20
          }
          dim {
            size: 8
          }
          dim {
            size: 1
          }
          dim {
            size: 64
          }
        }
        tensor_content: "\0304\021\275.\'\027\273D%\030;A\220\316<\337\004\177\274\t\037\010\275\341\214\n\275d\311-\274k2{<c\017\231<g\017\337<\374{\023<u\323\223\274d\035\222\274\370\240\233\274\271\314\025\274\200 \240\274Q\005\251\274\007w\235\274\n\201p;s\377+=\ti\234\274\036S\006<%f\257\273nr\035<\375\224\315\272>\020\315<L\362\'=\301p\211<\261.\016=B\366>\275|\355\355<\223\307\212< O\036=\331@\022=o\325\360\274\242@\004\275\215G~;\261\351)\274y94\273\367\244\315\273\2522-\275}\025\261\274\021B\n\274\007\2202\274\370#-\274h\371\226\274\n\365[=\214\030\226<_E,\274\271\331]\273\"W\215\273\326?x\274\242F\n<\026T\367;\266\036\254<O(\320<{\t\223\274(Y\020=\346\027)\274\226\230l\2748\264=\274\365\014\245\274\363~4\274$\333\031<\263\254\304\274\253%,=\216\014x\274\363E\305<\236x8\273\340\213\364;\261K\301\274\001\2118\272\263\236\244<|T\235\273$+\022\274\017\314\312<\324Hw\274\361\366\366\273\354*\306\272\277;&\273\360<\261;p\013\000\275\315uS\274\262\376\215<\227L\267<\355\363.=y\222H\274<4G\274\207\245\351\274LP\273;\325\224H;\n\340S\274jj`\274T\333\031\274\301\254\330;\022\367\n=\241$X<AM\270<\035\024\214<\271\357\255<1@\301\274VZ\334\274V\027\324\274f\264\272<)\300!=\261\016\201<\347bL=P\036\341;\241\251\264<\345\000T<\342C\333\274\206\232\340\272\034\243\242\272v`C\274b\024\203\273;\020\3727-\321\273;\335o\250\274\327\321\n\274\307%7\2756j\236<\225\360\034\274\014\305z\274aX;\275\366\321\223;HD\007=\276\251T=PZ\265\274\035l\227<`\321\267;FD\025;\244\306\323<m\333\207=\254\220!=\030Y\307<\275{B<-Jm\274CBw\274\201y\337<q\001==\033\371\235\274\2509\356\274\r\272\357<d\236\026=\271\016\256\274D\'\310\274\217\342F<\"9\304\274\340\'\273\274T\300t\274\227\361\027<)\316\215<\336^\251\274\n\327+<\302\340\317<\316\242\256\273\003\313:\274>]p<\300\250F<9i&=\300\242\004=\240\356%\275\024\371-=})=\274\312\0100\274\272\357\025=\034?U\274\222XP=Mn\024=\241\327\217:\207\236\217<\225\325\362\274\006P\t=\2057/\274\2667\010\275Y\217\367<\r\367\334\274*\2560\274:\371\025;\354~n\274\252S\225;\225u\304\273\313\036\251\274|\237\024\275\233g\342\273\266\241\203\274\273\267\371\273\352\224\2109U/F=\247\222\035=|\013[\274L\r\t=\030\217+=\"\002{;\t\217\362<\305]\216\274\013\005B\275\r\337\035\275[\340\324<iN<\272\003\225\210<\222q\262<\323\213\004=v\312E=.\025\315\274u`3=\205\211L=\001\225z<\200\006[\274i\263M<mR\302;{\232\350\272,\255c\272,\204\313\274n)\271:\354D\330<\326\315{\274aU\217\274\221\365\037\275\342$\330<@\317\033\274_\342E=\302T\272\274\366W!=\303\227\241\274w\363$<\216\201\270\274\350\215\214\274O\322\305\274t\362\202\274\013R:;%\224d<e3\275\2714q\031\275 F\315<d\n\334\274]\031\002\274\350\004E<u`\256:\017\034\243<Z<#\274\362\330\266\274g\'P\274\222#\213\273\275\354\217\273\344\372\311\272\366\320\212<\010\211\242<o\211f<n\377!<(\342\205\274Y\033\274<\362d3\274\336\271\024=\342\224\211\274\206&\026<VPw<\027\033\220\273&\254.;\244\202\341\273=\020x;\240|\004=\323\325;\274\233\354\323\274\210\263\222\273\255\214$\273@:s\274\022\222\025<\301-x<e\234\366\274\214\031f\275\321$\027\275\236\221\"=&\263N=N\261*=\3543\242=\326\234\003<e\253\022\272\234B\'<\207\337W\272\254\026\031:\243^\347<\021\003M\274\243#\221\273\371\026\246\274\273\251\323<l\243\341\273\2628D\273\253\364P<\300\210%\274\005F\321\273qS!;\272\024\007=\203\235\324<\344(D=B\023\320<\244\'\205<\377Z\310<@\310q9\001\360\036<\217\362{\271\005\224\n<\222kH\274\200r\204<\313V\337\274\253\335%=0\356\223;\246\317[=A\005\370;\345\314\003\274\270\347\216\273\373\323l<\250Eg<x\251\231\273f\2309\273\274\374\017=v\200\201;\255\311#<\014T7=m$\331\273\227\365\026<wl\r\274f\\\216\274p\037N\274\\\357\346<\2362\026;\214\240y<\322ap<\312\255\320\273\201yh\274\031\373\347;\276\363\262\274}S\217<,\370{\274\224\310\213<\236\266t\274H\266\212\274\304t\017\274\330\255\007\275!\030\203\274-6\'\275\315\026\247\274\353\232\225\270[o\350\274c\277\027=y\224\225\274\374\364U;\364\370\356\273e\337\252<\367\000\346;\225\207\215<\246\270\203\273\343\001\266\274\211*\256\272\374\277\217\274K=\317<\253\367\034=\033L\240:\037\3222<\330R\262\271\253zw\274\331\021\201<\367\"\t\275(:\003\274\033\376m<\33711;&N\005<\200\343\262\273\256v\206\274K\341\230<\033\205U<\234\3754\275gS\331\274\\3\241\273\243\200\000<\214\221\022\275\300=\334\273\341\226\374;\230\243\030=gE\210\274\230\226^=\270\314\230\273\322M\203\274\330\360);\006\004\216;8\232\327;\352>\257<\017A\347\273$\230\006;v\230C;\335\276\007\274\214&7\274S\006c;\311\313\211\274\254\306@<\014~^\273ed\"=\353\231\347<H\321\026<\274Y\214<@\203\234\274\314\265V\274v\262#<\214C\001\275.\332\345;\373\335\260\272\213\273\021\274Y\020\352\2735\035\227<\376\214\236\274\300^[<\001{\346<l(\037=nJ3<\201\317>\274\234\315)\275\025k\211;\250\'M\273\007\0360\274C\373\026<\221^\\<\036\2546<\301\177)<=[\353\273-\203s\274vC\262\273/(W\274\267=\006\274q(\305\273\240\265\266\273\322\212\255\273\303l\t\274\300F\207<0>,;\226\334\203\273\001+\246\274\237\227\000\274\247u\025\274t#\272\274\360\006B<\267\353\236\274\373W\205\274o\320e;8z<\274\032\364\002<\372\321\343\272\233\351\235\274\005\300r;.{\325:\264{\340\272+\267\211<\035\2202\274\030\201\270\271\347\342\n\274\023\240S\273\007\366\375\273\362/\021\274\023\233\234;N)-\274\312j\327:eM\206\273>\010\014=\327}\016\273oU\341;\336~@\273Dm\372\274n\322\374;\261\305,=BT\266\273\310\262e\271\334\231\254\274\3166\205<\000\206o<\305\244\202::\022\362;\227yR;fB\231<\022]\024<$\256\253\273\334\357\001\274{\273\327\272~\030#<=\265m<z\351M\274\2161,\274?^o9\377\234H<IR\267\274\373\027D<\257\271Y<\327a\230<\013,\373:\\.\373\271\033\ts;oX\254\272\227\224|\274|A\225\273\035R~< J\235\272+\273\242<d\025\366\273\341\034\014;\345\303;;}]\004=\330\354\336\274\214\304\220\2733\216\r\274\211\237\367\274\362\345L;\331\202&\274\303y\225<?\271\034\275\375(,\274\305P\315\274U\014\323<\302\330\224:\002\221\233\2743\346\222\274\273\377\231\274\014\344\n=\330\232\"<\2344\t=\277\214Z<\0245%\274\234\347\262\274\331\023\360;\312\244\230;U:\016\274m\260v\274\307\250\236\274\357K*;,w\034=\025\202!\274B\313\260<\340Gx\273\222\254W;V\360;\273\354t\233<\243x\336<\027K\332<#>\303<\332(\027\275\327\263\372;d!\204\2724\212\300<\364\344?<\327\322\206\274y2k\274% \221\272\376\321*\274\337s\236\273\025\352\322\273\007\256\300\274%\274S\274)\363d\274\3052\210\273\377%\326\273Ep%\274]\222\210=\244s5<\274\364\031\272\341S\240\273\'\332\250\274F\032\325\274m\220\254<\017\273\370\273\310\334\037<\017~\006=\335Q\022\274\263\360\227<\306\302\247\272\242\200\236\274\3076\022\2744>\212\274c\004\212\274\242\277\317;\033\235{\274N\246\000=\032\213\244\273\350\261/<\326M\'<\370\201\023\274P\360W\274\034\257,<\374\224~<H\316\021\270\270\0075:\246\366X<\023&\226\274\2551\312\273\261\306\246\274\001\333\261\273@\227\235;\306\336\010\274\037\217\035:!W|<\207\235q<\014\260\001=h\002\302\273\352K\243\2741\305\t\274\345L\240;\337\324\245<\320Sr\274\316\242e\273R\232\307\274D/\231\274\237\322:=\305\371#<I\243\000=\253\340\216:xJ\216<o\316\003\274b/g:\337\177\276\274\033 \373;\231z\014=S\255\312<N\371E<\036\276\272<Rl\032<\377}\345;P\006\030\275\211\370@<\250\2010\273\303\014\231\274\257Kq\273}\324\213<\337\261\370;!d\311\274\213\005H\274\204@/\273\017=\020<a\265\305\274\261_\262\272\317\242\215\274\362\301\\<\2268\270;\205\323\031=/\322\346\274\017fy<\2446I\274\267,\273;_\320\307<.\253\031=:\255\235\272>\313\236<\320\\m<(\252,\274h\260\241;V\204\n=\014\345A<\352\025A\274t;G\274\347:v<\021^\366<G\315\321\274\325W\t\274q\275\264\272l\341\230\274\342\\Q\273[\033\222\274\2179\224<\301\313V<\341\345R\274\024G\252;\037\254\024=\333m\265\274J\244\365\273\024I\232;\247\023\255\274\007q\033=\0265\333<\031\r\264\274\331\216<=`2\232;\244\177a\274\334\\\340<\2741R\274]\2531=\326z\276<b\014\006;\344\337\035<\210Z\254\274\344b\361<&\313Y\274>u\323\274{\204\006=\315\013\364\273\322^\202\274\351H\200\273\326Bv\274\r8;\273$Aa\274\310\214\t\274\271\216\360\274\016n\2129xJ\017<\255\270\225\272\311*\357\273\340\227\'=\324x\003=9H\323\274\277s\375<?W.=9:\240<NF\t=5K\213;Es\373\274:\025\223\274\017F\200<\353o\201\274[\317\242\2725\3248=e\277\001=\206Py=X)\016;\332\256j<\001\201\326<\237\220\303<\3254\027:\336\237f<\301\241\0139\014\253G\274\350\340\235\273\023\240>\274\021-\266\273OY\n<\331\025\210\274\227\217\336\273Oa,\274t I<#b\217\274\275 \020=\202\3228<\215\017\332\273\302\313\024\274\034\330\374<\370O\310\274b\223\263\274\264\001.\274\350pS\274\253T\376;\316 \001\274\3118\304;\265\260\237\274\217k\315<\221 \346\274\320J\211<\307 \303;\204[\243\274\272\337\303<\377Nt\274\031%\305\274\027\301\344\273\177\362<\273\363\023\010:h\037:<I\363\316<\317\261\014<3\311\276<\234\'\004<q9\274\274\215\315#<\362B\255\274;\374\377<t\247\271\272\303\257\242\273\006?v\273\265\244\000\2733\261\350:\320!`\274u\014v\274\362O\362<\252\262#\274V;\374\274\225\023.\274\273\301<<\303u\240\274\013\323\340;\305`\276\273\037\023\177\274,\031K\275)\257\300\274\313\202\263<\223\343I=\005\331\316<q!\223=C\3449<\271\266#\274\2540\205\274^\311\031\274n\240\335\274\237>\362<\303\251\233\273\345\321J<\253@\341\274\337\310-<D\346\357\273\264c\3638F\232\213\274\276\256h\273\336,\'\274\353\353\320;d%(=\007\226\271<\346\327\344<\271\303L\272\3220\364<:?3=d\274\317:\265\371\'<\372t(<\000\261\':\313\366\267;\\k\371;6\231+\275\235\036\257<v.\013;\213\245.=\375\272\347\273\365x\276<X#\211\273J\303\020=\'\300l<\261I\276\273/o\353\273\302\206Y=~\232|<K\027\351;z\321\314<\005D\325<}-\310<\014H;\272O\001\322\2742\311\r\275\237\332 <\204\377\000<(\270\367<\233N\350;\013%\265\274l\326\213\274\354^\000<\207x\275\274\226.\221;\"\320\347:\264lG:a\322Z\273\362\315+<\201\343~\2748\344\322\2743\217\200\274\253j\322\274D\235\007\275\340\263&<\032JL\274\255I.=X\221\214\274\372:\272\274m_\016\274\363\357\332\273,\026\334:B\352\237<\222\3357\274\312R`\272lX\276<\320\306\211\274R\276 <5N\374<\257W\n\274\310\374\202\273\027}t<\233SU\274\227\277\222\274A3\355\274\264`\267;_\241\027<\237K\005\273\017R\233\273;\207\314\273^\250\264\274\311S\255<\267\026\331<4\221\302\274\357\244\003\275\264\247T\274\276\254M<\242\331=\275\315\020$\274]\215\027<\035\335\323<\221\264b\274E\372\034=\177%C\2744J6\274\305\325\345\272\343\255\232\273\034\351\336\273\343\373X:D\326\037\274\350\313\261<\310\010*<\324D\210\274l\276P\273~\211\274;\325\033\022;\034zi<)&\236<\255\364\337<\014\263\272;az\004=T\216/=T\253\376\273\320\265\001\274\037\304\232<\220\342\n\275\316gm;t\337a\274\254*\263;\016u\026\273\377W\013=n\327\350\274\373\203\371;3m6\274\276Y\237<%V\335;\344\024\t\27440\366\274Nk\'<\271\336\255\273\310\365{;\034[!9\'d(;=4\343;\300\2350\272\376\234K;S\001\273\274>f\347\273aN\010\274\017A\215:\256e\221<\364\271#\274uLf\274\336a\376\273\240\003\354;\035\007O<\250\032G\274\037\205\276\274q\t5:\223j\005\273kG\014\274}\265\013\274\244v\003\275ZDV<4\320\266;Y\004\237:*\251\263\273\226\367\037\2748\235\335\274\242\334\003\274\314g\313\274o\346\344\273l\376\235:Z\235\034;N\263\233;7\311^\273\312\2179<\034lw\274\n\356\250;\010\177$<\253\010u<Q\022\r<vcV<\273\340\'<\360\303\244;\324\220\230<\244\240{<\'\244\356\274\201\252\321\273\347\366$=5\251\320<\020\362+\273#);\273=\355\302;)nO\274\330\211\325<\n\261\336:\211n=<>\025\035=\343f\010\274f[\025\273|*\026\274iaE<P\210\253<5\241\272<\207\326\336\272\230J\036\274\306\371\253;\023\365Z\274\242\206\211\274\215\227\035\273\257\265\255<\371\026Q<\r,\314;\316\211S\274\300\3442\274\246p\225:\210T\253;\345\000\316<\246\253$<{\010d9\262\302\361;\t\n,<\034\203\212\273\347\337\373;X\325\267<\364\205r\274Z\'\3159\342\340K<\006\0047\274\256Fx9\016\364\177\274\242\343w<\tl\177\274\355\365\327\273d.\260\274\031t(<\314?\303\273)1\212\272\r6\355\271\341\032\271\274:\335\217<\264\350\017<\200n\030<0I\242:#\017\202\274\341\036\274\274\177\0100\273\r\263L:\261\267\030;3\207c\274\336\031{\274&1\325\273\261{\266<\350?/<\322\340\226;C[+\2743M\020;\332\377\025<\027\340\024<*B\266<\037v\374<\201\221\351<u\0046\275\306\257\235;^[N;\335\337\025;\007/\033<}B\317;\251,\252\274\342\343!\274\250\036\347;\252\035L\274Z\246<\273#NR\274\"Ps\274\322\244\007\274qe\037<i\376\346\274\262\310\300\273\333\202?=m\322S;\361@M\274T\340\331;=\333\007<G\016\330\273\002\347\214<\377\017\262\273\231\342!<ph\251<\352\024k\273!\030\020=\336\210\314;M\352H\274\030\220\274\273\230\022\"\275\037\177!<\366\374c\274\334\\\357\273p\221\217<m\237\263\273e\007#<\004\346\177\2743R\356;\213\332\214<y\260\307<\200\0242;\267\203\326\272\300\271\311:\003V\223\274\251,\375:\312\031h<VT_;\213t\025\274/\200\013=\214\001$\274\2255\235\273\213L\277;\034\346\023<\210K\347<3\277\003\274\004\302\027\274FK\221\273\271\032q<)yi<Q\"\320:\267?=;\336\351\221\274x\t\272\274&)8=\361\344\344<\323\215\310<C9\252;\315\t\251<\001L\022\275O\235\270;\317y\325\274c<N\274\344\214.=\253<\217<\247\214\340<\3113\233<\360z\036\274\361O\307<\350\252-\275o+P\273\033\350\030<\314\271\256\273\211\302M<\227R\326;z\033\233\273y\303\'\274\313\274\240\2743Q\346\272/7n<\277\234]\273?\363i\272\304\265\241\274\306\261\020;n\205\036\274\331\021\360<\013z\366\274c\237\327<s\234(\274\253L\327:\375\251\232<\260\331\035=\r\277\336<\305\372\010<F\t\201<<\333\201<-g\352;\304\320L<`\373\255<g\261\021\274$\027\031\274w\023\207<\323\006\202<\342\016\300\274\321\376p\274\262\025\376\272\037|\346\274\230\222L:uZB\274\373\257p<\021\\\271;\224o\323\273\2048\n\274\341\026`<\371\334\366\274jR.\274*1\022<\226\323u\274\020_\243<\\j\211<\231\361\025\274\263\024\351<\347=\305\272>\302\310:K\340\234<\301\033\367\273aC\t=AX\345<\373D\203\273Hv\033;\352\225\016\275\303e\367;\005\372\206\274\365s\254\274Vk\256<\020\200S;N\007n\274`D\014\274,\177\005<O\231\266\273\n\233J\274}\204:\274nn\364\2744\207\215\273}r\002\273H,\226\274\355d\200\272\360\016\241<\034\014\230<\257\'|\274\027\r\245<l\2312=\343\252r<\200j\306<\214xY5\022\321\252\274\307\364\250\274y$\033<\265\351\202\273\250\243\323;\201l\277<a\035\243<\262\253\223=\227\0053\274\241\362\313<6/\351<\210\005\245<\256w\006\274\034(\322<\t\\P<d>\027\274c&W;\230\321:\274\362z\212\274n\226\000=\364\031@\274\236\226\227\274\310Y]\274\021R\201<\333\207\244\272h\030\006<\317\351\333\273\217*\030\273\345\024\302\274\021\257\214<Vv\234\272\326\210\331\274\245:\"<Ai\217;\233cW<\314\275c\274\026\334\214;p/\303\274\303\375\252<r\302\267\2735\350\340<U\010\243<\252\252\321\274*^,<\230\256v\273HU\227\274\220\366)\274\263\336\340;\343Y\223<\363\337\324;\357\034\326<-\010\004;\340MK;\375P\000\273\322h\213\273\373\234\006=\207M\006\275\025\004\316<,\2355\273Z>\350:-7\n<\340\020\022;\337H\010;\033@\t\27239\201\274\340/\006=\350)\257\274\'8M\275\253\320c\271\024\001\243<.\371\313\274\000\212\346;\"\205\276\274\\\026\006\275\332H9\275\320\034\322\274\014`\270<\027Q\032=@j\216<U(\202=\342\202\350:{u=;z\n\205\274\004\202r\274\263D\276\274\353\222\304<\325\205\007<\300\346\333;\225\351\271\2749\t\333<\205\343\032<@B\025;\351!8\272\376\361\230\274\351\030\203\274%\343\002\274%x\025=\2432\256:\030t\021=\367\030\001<_Q\330<\264\361\322<\301\3752\273K\036z<\227\240\204<\225\334\350;\333V\203\274\210\377\024<\363~\355\274Z\2635=\254)\201<,\314\277<4~(:U\2316<\005\372\002\274\245\3425=5\201\323;,\323\305\274!$\205\274V\337i=\r\303\223<\'\032o;\306\241;=\024\001\016<T<\207<\325\234j9\313\360\203\274[\250\013\275\306\364\343<%\232^<%rX<\271\205\001<\351\247\261\274\306\205\235\274E\031\216:D-\234\274\347\312C\273\354/>\274\003\260]\273\031\"A\274P3c<\337\334\240\272q\252\333\274,J\035\274\214\204\007\275YV\010\275\377p\302<\3401\357\273\251s\027=\365\331\224\274\344\234\232\274\262\036%<%\310I\274\\|\004<\360]\270<\246\223l\274)R\020<CO\256<U\222\252\274_\264\377;\333u\351<]5;;\207\304\264\273\004[\212<\" \225\274\226\025\320\274\004\207\034\274\240[^\274K\365\212;\027\035\330;3\327\014\274b\317\211\273\242\031\347\274\200b;<\341a\350<\325S\026\275\177\350\254\274#r\277\274\001e?:\253\212\035\275\350\245\364\274\273\340\023<\240\346\246<r\200\233:\202\212\371<1\013\314:\241)\251\274\315U\r\273\036\324\257\271\317D\221\273\033\351d<\036F\300;y^\355;\037k\343;n\210\004\274In`\274\241\222\221;\317z1\273MrZ;\3033z;\247\020\000=\234\027\211<\307\327\274<\365\321s<\232 \274\274W\000\214\274\256]a<k\324)\275D\225\267\273\016\241\201\274\rPx\273\260r\016\2743\307\017=*<B\274\231v\004<\236\034\203<\213\364\014=\240wp<\215E\321\272\023\177\346\274.\367\341\273O\211\302\272\341>\267\274j\013\307;\322\251\013;\227\305\017\274\'\270\'<0W=;\021W(\274\222I^\274\250di\274\237\016e\274\356\330\243\272}\307\206:\335\227\277;e\221n;\361\036\254\274\215\217\262<\3360&\273]|\255\274A\277\025\274[i\220;\364D*\272\236D\273\274\233\266[\274&y\311;\324\020^<\336\235\213\273W\026\030\274\227\021\352\273\317\357\256\274\363\0144<\276\361S;\347}[\273\3736\203;\253/\234\272\317;\302\274\212\201\024\273\037\255^<\032<#;\227Ny\274$\324\207<\317\306\210\274\221<|:\263U\001<\277\013\t=\257\004\014\274\004\334Z<\036\304\310;\301\251)\275e\300\352\274~{\225;g\337m<\242\014\246;a\202\331\273\372t\262;\2460u<\177q\267<\371]S\274]\304\232<Pq\346<\205\321\310;\310\226\256<\336\210S<+y\313;\362\327\274<dF@<\240\244\214;\347\364\252\274\334\003\013<\237y9\274)\234\262\273\024&J\274\270f\027<G\375*<\216\315x\273\006\326\317\273\212+\007\274\206\036#<\340R\355;\314\233\267<XT\330<\0240t\274\016\307\300<1@o<Hc\236\273\211\360\242<\340\333\360<\236\031\206\273\343\317\007;\306\370M<\364\036G\274\2460-<\006\370\372:k\201\373<\266VT\274H\240S\274\2634\252\274\"K\272;\010\"9;\315e]<\036\032\330:\361\356*\275c\347\341<\371\221x\274\217O\210<G\274\002<y]\233\274\000w\337\2731Ir\274*\002\227;\t\030O;\0104w\274\030\233^:\275\346\206;\217\232\241<\220\035\214<f\345m<g\027\210;\377\251\017<\255\242~;\036\013\347;O\305\247<$b0<\t\221\266<2\361\007\275\246\013\331;\221\205\363:\323\224\372;\213@\005=eM\032<\316|\271\274`\342{\274]\347.<\020u\272\274+uu\274\001\016\231\272\251[\005;\335\'l<\032\277\256:<Nz\274\006\316I\274(\351A=\355\021\214\273\225\327\310\2718\344y<c\346\017\274\347TX\274\037\326r\273\204\222R<\002\226\375\273\274N\275<\232\313%\274\307\324\333<\263\201\201<R\247_\274H\352u\274\312\253\255\274\302\303\230\273\001\033G\274\371\013\221:d\017\221:\236J\031\274\2215\265;\215n\326\273\361\262+<\315i\002=\321Q\355<Fd <\343\320\256<aba\273E\027\033\274\360\367S;\\h\211<\367\215\206\274\257\r\201\274\"\231\332<\350\265\226\274\037# 9\rWw<\254n8<\321\2102<\222\341_\274\343\336\037\274\237.\t\273\254\345M<[[\260<~\1775\274\315\333^<\252\020\313\274\256e=\273\245\304\014=.+\202:\214\362\036<T\203_\274\326 \335<\263|\004\275h\351-\274\266m/\275G\304\226\2714\322\366<\247\243\353<\r\036\243;\277\001\265<?&\t\274a\030\255<\242\324\206\274\253\017\025;l:d:\221\013$<\362~\037\274Oi\263<\\\206\266\274\326\335C;%^_;\204\204;<\207v\322<B\250\375\274,@\340\273X\340\241\272y(\252<E\325\003\274\250]\332<\"p\231\274\201B\363:\263\246\022\274.\207e\273,\270P<\363M\025=\2154i\274$mf;\227\303U\273u\004\351;\216K\257\273\031\261\357<nR\257:\023\026\275;\360\253`\274\252J\262\273\263\261\220<\030\221\013:,sx<\234b\\\274_p,\274)_\217\272\315\374\377;g\321\220;^~3\274\031f\006\273\361\354\000<\327\363\255:l\230\r\273g*\360\273\3619/\274q\250\217\274xz\312<\0209\201\273f\234\004\274Z\"\006=\307=Y\274\227\300\301\272\022\034S<\311x\220\272\364w\351;\202\234%<A\261\371\273h7\236\274\t\370\214\274$\270\360\273\023\260X\274\320O\363\274\t\001\316\272{)V<\342$\271\274\334\263\221\272`\313*<c\353\373\273\023$\234\274\262G\035\273\r_\367\274\213a\023\274\256\242R\274\304;\036\274#\0067\274@\243.;\341\237\202<\346\340\257\274\253 *\273\347\002\332<\237\"\363<J\342\243;\302\246\232\273\312&\323\273\023\233\264\274\t\317_<\331\322\\:\214A\264<C<\317<f}\273<\320~Z=\007\177\312\2730v\\<\362\2741=\233i\306<I\250g;_W\265<\003\343\301<y\177\277\274\306(\203\273\\\261\'\273-c\364\273\362\255f<\027\215\250\274\005\277z\274\021\3772<kD*<k\355\020;\377=\202<\037\307\363:\331\246\310\273\367U\316\271\277\216\306<u\275\003\275o\226`\273\262\021\010=\351-k\274t\003\353<\373\361\201<\320`\376;\254@\223\274\341\302\276<i\251\n<\031\303\350<(\340\"<_U\031\274\300\360\207;q1\361\272K\323\221\274:\243_\274R\003\035\274>\274\330<\353\005\351<\177\323\264<Q8\322\274f\013\232<n\355\252;\360m\216\274\334\037U;\373\005\r\2756\353\245<LW\n=\3560\3679\277\320r\274U\341\340\272\221}\315;\251f\215:\212,\207\274$Q\031=\027\014\212\274\235\237\030\275Z\357\341;\321MB<P\004\337\274\376\206\300;\335!\033\274\317\314K\274\013\353\326\274F\026\227\274\360L-\273\341\016\352<\230\250\004\2738sn=\202\'\014\2743\234\003:\005\034t\273\363\325\224\274Q\023#\275\371\314\351\273I\3768\273\310\035l\274\035\362>\275\232T\227<\215\377{;x\233K\273\336p$\274\352\337L\274 \030\315\273\023\253\200\274\266\232-=\206\207\232;\337J\213<.\271}<S\322\201;\337<==g\311\316;\026W\260;}\227\373\272D\206\313<m\316&\274\301@%\2740\266\335\274\324\250\006=\233p\306<\'*\234<\266\264\201\273/\235\366\272\270 \322:M\016\000=\237\212\\<\306\365E\274\343\237P\274\\\321\032=:\227a=\031\317\226<\230\306\314<\220j\243<\253q\256<Lf&\274O\302x\274\221\220 \275\241\347T<v\215f\272e\354[<\376\306_\274TjM\273\360JJ\274@\030#\274\216e\014<\2416\333:\210\264\034<~\t\227\274(\036\270\274\376\272H\274\375\252\374\272W e\274X\370Y<\250\222\267\274\343q\214\274\021\227\311<\032j\226\274p\210\225<\267\220&\274q\003\217\274\321h\242\271\310O\206\274\276\222\204<\245{w;\271\236\t\274\034\277_<\"x\227<TL^<\270\361M\2732\270\';\273\360\274\273\246\377&\274NpD;\324Q\304\272\306\354y\274Dq\210\274*\375\255:\243;;<\323$\221<9\256<<\257\014\024\274\0133\256\274\241h\355\273\260\271!<r\223\330\274\321v\031\275,\'\320\274\374\n\016\274h\213\271\274\232\345.\273\331\017\010;\235L\343<z%\246\274\231V\332<\336\327\230<D\375\320\274]\216C\274\357\233\316\273I\020\220\274|\3615\273\272j1<@\260\246<\326\335\000\273\314\212\263;\210\002\230\274\376l\371;\236`\325\273$\261\205<\323\307\312<\353\326\013=\030\330/\274r=\216<|\323\222<\022\013\311\274\224O\322\273VE\317<ej\371\274\031R\326;}*\036\274B\252\221\274\224\t?;\260@\366<\341\023\274\274j\016\355\271\335O\017<\000\347\277<\207\3212;\004\337\364\272\"\233\001\275\004\270h\274\t\237\367\273\257\265\253\272\337\220\021<\010\010L\274\215:u\274\262Z\\<\217\374;<\370,\023<\002\273\205\274%\251\250;\367\335\004<\032\2049<!\341\023\274=\304\332<\240\016\245\274\236\377$\274^\367*<p\341\222\274\215^\324\274N\214\002\274\037\226\261;\346\333\215\273\230\242\377\274\313\353\363\274+@\t\274$\260\215<\351\240\226\273A\336B\274\275\204b<\301\234\226\274N\301\276\273\005\205\207\274\265b\007<\335\004H<\2067\374\271\311-\003\273\237\215\236<\257\010\265\273]up\274J!=\2746\350\222:i\033\353;\231,/\274\\\370\343<\353)D;G\263i;\326\360]<_u\312;\370\222)\274\376\247\255\274\302#\030\273\370IY<\247\0246\274\026U\234\274\234vn\274\244\347\247<iNt<OP\027\274\377\203/;\255\014\246<\263\337\237<\3152\225<\372\305:\272#,\235<np\371<\236wk<\345\304^;\235\345\213\274\2023U\274\030\023\227\274\362\177\244;\032\276J\272\013\027\333<\272Oa<j\3734<\236o\177\274\374\231\364\273k\3263;Q\247\241\273\204\216B<Lc\305<\305\365\024<\333\202\345<A/\25497 \327\273C\325\266\273A\212_<y`w\273Dg\207\271\002\227Y:D\247\257\273s\315_<\270H\034\271\376N\250<M\203\020\274\223\211\345\274\242\307\024\274R}\002<\344\375I<\272\317\305<\031\272\272<1\342C\275[Y\331<v*i<u,\340<\332\314\017;`z\276\274\351~o9\252wi8f\t:<\260\001\007<\020\327$\274z\2032\273U\337\262\272\224,u\273_\025@\274\364\"\270;F45\274B{\027\2746j\222<o9\251\273\364~\346<\214\200\002\272@\255Z<\334\334\203\274j\000\027<1\362\005<A\265(;\246\332\363;\304\212Y<\273t\350\273\t\207\225\274\\<\355;md\366\274\316\215\036\275\016W\242<A\247z;\014\2203;\002\210\255;\304\031\322\273*\003\221\273\257\220\357<1c\022\274\314j\270\273 qw:\020gh\273\326\345M\273\326\335&<\004\001\033\274Vu\216<X\314j<\324X\222\274\027T <\320\357\n\274\212\256\336\274 d\006\274\352\364\"\275\000G\344\273;\007\264:|b\204<S\261\277<\033\244\265;\220\313\325<s\030~;GnH<0\300\033=y\020\240<=:\207<\333\267\300:?\025\016\274<\241s\274\220\230\251\274\227\341\210<\'\247v\274ZaY\274\000\235\331<\021\204\233;\225\013\335;\351\256\323<\352Y\206<\220\037\3028\343\214f<\273\332W\274\311\033\213<e\366\2647}w4<K\351\207\274\270y\371;\332\336\333\274\272\266\235\273(\200\371<\215\265\232<{y\025<\020[\325\274N\226R<qS\303\274:\340\304<M\037\006\2753\241\214\274\302C\245<R9N<x\360;;\270\'\013:G*\235\274\342\303M9\222[\247:&\016[<\3456\002<\000N\005<\203\370\377:3\030\256;\356)\257\274\200\3013\274\267&\003\2741\036\250<vX\201<&\241\255\274\2444\000\274T\214\031\274\374\212\207<\307/\351\274\317\363\037<\366\340\344\274\370\361\207;>T\230\274\2448\213\273\220(\035<t\370\362<\201\t%\274\257\264\"\274\311\273\261<\256j\312\271;_1<\210\257A<\363\240\223\2748\025\205\274\231\353\333\273|2\026\274.\215D<Q\311\026\274P\304?<\345\232\205\274\nN\016\2747f\377;L\356\325\271\372\260\374;\357N\205\272]E\222;\332\016\010;y\306[<\275\031\2579\336\350\255\273\227\334\\\274f\236@;P\263W<\260\374\005;P\347\261\274X-?<\352[\220\273{\203\366;T\031q:@\313<\274\344\256j<}\215\005<\203\003\025\274>\304\270\274#\363\363\274\240\307\277;\214\237\323\273\226_\027\2749]4;\234\333L<\353z\260\274lq#\274X[#=4\354\251\274\262q\021;\270\330\177:\177\376\260\274\3769;;\360\376@\274\205\251\260\2734\003\357;t\276\204\274}f\263;\033\300\266\274\177\317\252\273h\267\275<\206\324\262<3g\327\273\210=,;~IP\2726@\371;\216a,;2\2601\273Y\353\310;\327\261\305;\373x\n:2s\026=|\214\376\272\276\313\351;\005b\252<\324\036\346<\252j};\255\305=;\2638\346<\017\231\005\275\266\342\362\270t\3547\274\025?\203\274\261\023\341;Y\030\340\273\310\204#\274\0025\301\273\217\315-;\310\237\247\274\330\326\230;q\363\316<|\034\207\274C\254t\274\300P\315<O\021\263\274\204B\006\274H\313!=\033\016*\274\016\210\024=\305\377\214<3S\360<ED\210\274M\303o<I)\211<\305z#<\'G\225\274*6\372\272\3569,;\353\240\227\273\363\262\365\274O\\G\274l~@;j\347\266<\030\340\361;\217\326$<s\025y\274\201_\357\271;\350*<\356u\202\274\370-\332<\342F\374\274\373\374\303<\336\333\023=\005\232\222<\263\3503\274/\235d\274\316\360\251<\315\363\263\272\215\270\223\274\261\250\351<\342\3021\274\220]a\275J\321I\274i\246\337<e^\232\274t#\202<\266\301\271\2733\347&\274\255\273\"\275]\222\251\274\305H\230\274\327u\344<D\215.\273\252\241\022=0\333\036\27313\204;\357\006\245;\310W\345\273:\260\252\274\323\345\344; \261T<l\240\230\273\033\205H\275\033\212\025<\'\262\000<Wc^\274\357L\343:\273\337U\274\234\376\261\273{f\001<\306^J=B\372\236<\251\361\224;\216\225\300<9c\022\273\222y\002=+g\311;\024\010\264<\252x\217\273\254\032\274<k#\023\274\331\2279\274$,\212\274\354\332m<h\251\251<\362\373D\274+8\000<\373\265[<\355\262\017\274\305\016\321<\373\267\227<\350\"\304\273\325\206\034\275\371\365\277<\312\313?=\":\323;\303\200V<\2374\365<N\034\301<\230\"Y;\312\006\354\274>\264/\275O^\014=@\362\216<\351\374\260;~\324\245\274E\251\351\274\236\264\260\274\2452-<o}1<~\271\234\274\311W\211<\276\022\032\275\244\030\222\274\\\320v<\376\307H\272\004Cn\274\014\345.=\216\222\346\274U)\220\274\220\204\262<F\311F\274\275\t\036;\364:\350:Y\014,\275\375|k\274\021\'\005\275\322\354\010\274\357\020&;\026\"\245\272v\036Y<\010$\032=L\311\301;\313\254\337:F\2579<\247h9\274\2732\221\273@Z)<\013\217\002\275\2411\016\275\014\374\362:\246\224\317\274%M\250<\317\036\377<5x\207<GH\230\274\014~ \275\267\252/\274v[y<6\263\006\274\025\220$\275(]*\275N*\231\274\214\350\203\274\254\216\241\274z\272\314<\261D\206<\214\305\317\274\316\264n<_{C\271&\247\314\274\302\244\177;`\252\2249\335\353\352;\2524\327\273\230\301l\272m\373\271<#\331\003=\275\273\253\274\316\225\013\274?\304\002\273\2019\017\275\226\341\233<\221[+<\024,\034=l4\2548\235\356\024=\265\271\331;\265:\024\275b\312U\274)t\221<\235sL\275C\3127\273\217Y\314\274cQ\332\273h\022\201\274\273\230\305<\330\365\n\275\027 \272<*\341v<f;\277<\266K\0008<i\240\2747\021\320\274\205\201\033\274\201\031?<\233J\271\272te\222<\306\316\000\275s\305\267\274\276\263\021;\"\022\303<c,V\274\003\301\'\274\302s-\273\031\2462\274\215T\005<O\317\234\274\374\363<<cqd\274+n\266\274\275.\242<V\032\264\274\027\271\263\274L\240\217<\232; 9\227\003C:,\017@\275\013\205\010\275Ag\232\273k\206\203<\272\321@\274\223\336\032\274\246&J<\222k\264\274\336WU<@\000t\274+\372e<2\267_<\017O\255:O\222F\272-\335b\273\274\340=<q\210\200\274`5c\274\361N\212<\023\245(<Ss\006<\314\275j<\224H;\273s)P\272+Y+<\246\237\375\273$\321\017\275\023\244\017\275y\0253\2731-\345<S3f\274f\311\203\274K\212\346;\"\364\345;N\203\334<3\024\254\2745\366\036<At\313<\207\245S<\036\207r<\245a\2059\032\017\356\272-1\234<\364-\001=[\013H\273^\315\256\274\021\260\037\274\347\243o\274\323\227\213\274\323\331F<\003\357\336;\332\211\212<}\305\255;J\204\274:\351r\220\273\212\347V\273\261{x\273\322\265\274<\376$\214<\300P\006\2728\250\251<\245Y\304\271\320W\267;\361m\200;3\264\277;\256-o\274\3038\351\273\251\314\026<\'\310\230\274\205\241f<\033\355b\274Oa\365<\260\240\230\273}\362\364\274\030\375\323\273\315\202\346\273\t\366!<-\257m<\211c\332;\2479\335\2747iD<_\320!\274\020\337-\272.*\033;H\241\215\274\205\002*:\340~K\273\353&\2769\377Pv<\026<%\274%\031\271\274\313\260\025<l\341\"\274\206\230\322;E\326\237<\336;\270;\026\357\207\273\207\351\302<\252\307\"\274\250\323\207<O\0302;\0077\200<\334\3364<&\233m\273\023^\222<>\024n\274\325^6\273b\231\250<\311\236\372\273\355s\001\275\342\250\212<k\367\020\275\030\350u\274\367\270\323<p/\264;ugt;dK:<2\251B\274S?Y;\\\241+<\007-\253\274\261\300\241<\226a)<\257\217p<\341\010\002\274\r\021\211;\240\2544<\2135\232\273\365}\230<\026\223+<7\203R\274WoR<\3327~\273\325V\224\274\217*\217\274\031=^;\275\002 \274on\020=\322+W\273\033\177\020\274#\231\223<=7I\274n`h<\223+A=\217M\376<4O\222\273@\"\t<\241y\013\274\271\337\307\274\207\022\000\274\014\007\025\274\204W\027\274W=E\2740{\266<~\313H;\312<l;\001\222\241<f\225\255\272G\003\210<\371\340\026\273\206}\320\273gZ\236<<\264K<4\271K<[\346\000;\240\357\334<\305\211\275\274\324\225\020\273\220\204\222<\374\320\246<\264\033\000<2\354\310\274\001\335S<\024\307\374\274\204)5<\327\300,\275\227\252\337\274\025%]\273+\271:<\321A\251\2735\336\024;\317\230\221\274\034\260\247\272\007\211\313<\374m\357;\343\\1<\252b\241<\353G\024\274\005 \335<\240\332c\272P}\005<\310z\240;\002A\n=\276*\323<\374\333\224\274\313\262\370;\320\300\213<\240\251\"=\210yE\275\204y\027:P\354n;\227\246O:*i\352\274\253h4\273\033N\236\271\255\'\014<\322\276\t\274g\342|\274\220eg<\230\001\271\273s\361\351\273}\317{<}\312\215\274\213\005+\274\374.\313\273>\255\203\274J\237R\274\3164\223:\200\005n<\273\r\002\274\366\3723<\321\350\314\2735\314\251<\010\366?<\320\3024\272YX\024<\272\377\033<\303\350\231<\240\007\206<>\342\340;\236K\364\274].\017\274K\262r;\341 \257<\214\007\241\274\273\265>\273\350\317\370;9\302*<\260\007\302\274g\354\331:]e\034\274Z\346F;Q\3108\272\234\332F\274\013\261\275\274\026o\374:C\346\266:\361\345\334\274/\320\333\273\'vT;(\232\211\274\364R\002;{Q\252<U\206\020\274\343\273!<j\"N\274\007:#\274s\"v\274\020\234L;s\021\033\274,\253\272<)\033\311\274\364\333\246\273\334B\330\274.m\213<\332B\016<\326\2443=jz%\274\251$\003<\206\323\204\272\350\213\304\273\257\235\"<\207\006\233\272\235r\211\273\200\3322;\366\254t;\253\322$=3*v\272DO\311;4S\334<\313\330\375<\270e\234;\ri\312<\307\232\013=[#=\274O*M\273\003\304\217\274\211\275\030;iI\032=\200\003\313\272\031\220$\274\002[X;\010[\230\273\014z\351;\235\346=;Z3O<\'\203\245\273\246\343\242\272\313\362N<zQ\037\274\2124Z\274\202\221\205=\250\220\023<nx\031=D\274\354<\353:\226<61\302;\207\347J<\352\230O<\027G\2379\277\000\234\274\336\226O\274\224+8<U\002\244\272u\215\320\274\2549D;/N\257\273\034\252\326<\031 \226\273-N\345<\177I\264\274\225e\265<9\327\227<\345\333\346\272o\205\220<\341\005\376\274\202\216\252<\005|P=<\301F;U\234@<]1\037\272\221F\332;\300\027\236<6\243x\274l\030\t=\247m7\274\216E\272\274\202\215V\274\224J\377<\003\343\032\2752\347\334<\325\323\364\274\200\266\262\274r\203b\274\333&z\273AW\232\274\\\022\035=\310\221Q\272\300\324\352<\001\377@\273\276\326\244<\332\221\220<y~\345\274\202\373\301\274\037\343\246\273\020\266/<<\0324<\031\\2\275\232E\211;\333`\266;9b\r\274\230l\377\273\234\361\212\274\314\212\010\275KcU\274v\351\330<\273\304\320<rPg<\"\275r<\252\r~<-\327\013=\333\006\250\272\214}\"\274G4\331;2\033\322\273\303\241\242\274\223\265\037\274\332\377\027\274\265j_<\240\032a<H\357\200\274sC\321\273\036e\201<:q\305\273\233\356,=y\010?;\277N\2639\000wN\275\363\360\010=R|w=\272\037\312<\213f\246<DW\346<\217\376\371;.\315\r\274\215K|\274\311\341\"\275\205\257\005<\021Ai<\212\243\263;R\357\002\275\212\310\346\274r\263\343\274\355A\253<\257\370\n<\236\324\202\274\317\026\324<\315\222)\275\323\326\227\274\351P\266<E\352\233\2741\210\037\274\2232\361<\t\232\214\274\327\274\016\273~\254\300<MtA\274\017\277\320\274\221\035\026;\263\223\021\275cXp\274n\204_\275\265\016\200\273\324\\\345;\367\214|\274\006\2747<\337_\234<x=\373;\305\222\002\274\373ti:\037\215\350;\231si\274\353]\005<\253\026\201\274o\002\035\275p\344\242\274[\377\276\274\304\363G<\250\316\325<)\321\225<[R\236\274vv\t\275%\ng\274\263\207;\273 \353h<\2575&\275\216\315\007\275\366\362\202\274\211\001\030\274~\337\020\275\331\3219<\351\336\020\273\331\350 \275\250\224I\274D\t\335<\367\360<\275*\272#;\224\262\374\273X\356\244\274\005\2039\273\312o\257\274\243\023\204<PZ\006=\364\303\335\274\316\227\024\274\0169\201\274be\322\273Z\213]<\334\362\213<\2754\336<\307\277<<\310J&<6`4\273\350\034\035\275\r5{\273\276\356\016=\367\023\010\275Rz\364:\003\233\232\274\214\221`\274d\341M\274T\216\303<\257\344\r\275\000W*\272\343\032\016<\n\204a<\354j\035\273\224\365\235\274\032\177\345\274\307\360\240\274\326\224\243<z\325E\274\010\242\264;\034\310\274\273[\313\031\274/\242d<\243M+<]\315\342:V\226\035\272z\027\222<)3\215\272u.\357<k\223\3337\337\301\022< 0\3256\231\226\355\274\363\225\377;\207\002\303\274|&\230\274\270z!<`(Z\274\257\177{\274\237\033\354\274o\004,\275\234\305k\273\243\341\344<\304\262\020\274d\337\202\274v\344\306;\265\247H;\t\222\341\272Q\363\215\274\336\276\263\274>\232\223<@\276\221:\214\021\305\272\370\330-;\242\227w<\370\360\013\271=kL\274)N\t=\033hX;\375\366\263;\246\037\016=\324\255\243;m\326\202<\310\263\250<\247~^<g\226\276\2743\032\232\274\3405]\273\357\247A<@\226\313\274\006>f\274\006\"\350:b\322;<L\020\014=\252\274(\274\216>\224\273oU\342<kHY;?b\257:vx\3269l&\033\273\033W\355<\001js<\\^\355;tB\313\2742\305\267\272\024\263~\274\345\302\341;\212\207\355;\371\020\244;\205/\\<\373\330\202<m\320^\273\'Mo\273E\263\234\273\231_\326\274>\364\007\273w\252\262<\2312G\273;\377 =i\353\375:\001\365d\274\234\017\220<\013\234\t\273\330\215\007;\213T7;\001\022\277;\312\237\030\274\335J\272<\354\010U\274\237,\307<\331.\203\274\342\372\312\274\260\333A;^+\227<|\204\335;\276N\366<J\303\324;\3139\014\275\274lS<\337\222\347;\301X\265:\266\315\213\273\275\341\320\274\302\236-\273\315iN<a)\272;xJ\264;\377\366\316\274\334I\020\273<\212\232;\374:y\274\003 \225<q\340\210<\323\\?\274\037h\215;&\226\255\271\r;\360\273d\225p\273\013e\325\273\370\206\220<\254k\037=\0352g\274\344\370\374;\252}\177\274\245+\201\273?~{<\200s\377\273\263\310\025\275\237T\266<\343d\001\275@\206\236\2746\371\233<\300\356\023<\033Y\010<\374\373\214<\366j>\274\232\030\315\273\307\344\223\274\2209\363\274BqD;q\372\255;\242\030\032<\204\352%;\356T\364\272J\223U\273\023\203!\272R+\202<\037\356\240\274+\217\004\275\333\0317<\272\225\347\274\22500;\217\0213\273\277\271\213<\021:\213\274K\3700=\372\020P\274\273\327\312;s\236\207<\312fn\274\240\364\255;\006\267X=.\031w<\374\235!<_\3554<zS\025<\027O\337\274@\234\035\274\215i\311<`\3774\274\327E_\274\222\274\372<\350\244\000\274\224\031\261\273\000\2574<\333\207%<\216\253\013<\366\026\006\274n\336\233;$R\224<\256|\223<\222\306A<S\253><uQ\341<\017b7\274F\255\225;V\030\260;\226\031\272;\n\342\350;\340\376\341\274\240\013\245;\313\2631\274U\374\321;U\003\253\274\001\001\023\275\030\227\325\267\257\301f<+\n\277;\260Dx<\372&\355\273\356Qb\274N\226\035=d\367\213<q]\212;c u<\310\277\023\274\354\313z<\177\227\213\273\235/T;\252=-\274\212\021\343<\354\006\357<\013\272\211\274\370\260D<\326\274\010==\356\246<\r\006\032\275\005\220\031\274\235d4\274\030\307/\274(b\032\274K\210m\266\211\035\323\2732\212W<\225t\212\274]3 \274\242E\276;\333\322\232;3l\325;\261V\226<\316m\320\274\3739\213\272\ruG\274\277\336\271\274^\215\302\274Sa\r;\007\270\367<\246N\232\274\357\r\244<\021*?\274S\304\222<\365O#\274.\342\214\274(\237\256<\267Z3\274\355\220\245<}\257\227;\241VJ<\376\025\323\274\321\357\353:xw\307\274\241\000K<=\225V\273W\034\240\271\216\243p<C?\344<\356\220\253\274\253\260S<\357\341\022\275\031\020\234;\357\030\267\274CFY\274\204\326\226\274)m\245;\033b+\274\201\027\241\274\345-\312\274\007\2477<y\037\030\274u\262\247\274\275~P=?\336}\272,GB<\td\257\274\3571\344:\232\354\217\274\326\300J\274\235\032\036;,6\025<8\331\367\274\316\200\005\275\034\304\210\274\0326S;0L\223<\362\026\010=\301\220\212\274\377\014^\274\274\260*<d\214i\274\372_q<.m\313;x\235V<\322\223\t<\244\253\\:\263\253== \253O\2748\350\273;#\206\206<\257\033\303<\220\035\330\273\214\342\005<\212\034\013=\275\325\263\274\237\206\245\274\365\005\362\273\031G\226;\261]\365<,\314\227\274b\235m\273w~b\274T\266\276<\227\216*<\341\300E\274)\003K;\000\270\351;\311s\222\274\010\2009<\321\237H\273\364(\003\274\034w\214=vS3\2743\225\007=X\316-<\224\237%<e\302\236;\177z\033;\342d5<\251Y$\274\t\"\302\274\375 \270\271\260\377\266\272_\210<\273\226\214j\274h\031A\274\026\344\217\273l\307\024==%\223<\000\242\350<\005~\263\274S\260E\274BR\373<4w\257\274\367\360\007;\230\337\352\274YdZ<\255\333I=!\216 :\177\363C\274\374\233\230\273\300q\271;\252\251C<\262`\246\274\207\255E<&X\007\273\357\0034\275\303/\013\273aLu<k\3460\275\315\341\314<\360\364\243\274\016\217\227;\321\355\033\274\345H\247\2734\222\031\275\240\311u<_\027\362\274F\030v<Y\256X\274\361\332\275\273\232\330\334;\253\341\212\272{9\027\275\325\\\265;\227\261\354<W\366>;\310\355\034\275F\316\343\273m\346\222<\247U\246\273h\321\240\274La9\273n\277\034\275\354\252n\274?`*=\330w\306<\216&\025\273b\243P<U\355H\273L\345\013<\'N@\274\206IJ<7E7<\327\366\277;\033\320\004\274\252x\246\274*k\303\274\366/\034<3S\254<\304=H\274\205\017\033\274]\231P<\033\003\007\273\243w8=\247Y\036\272\355O\331\272\234\271Y\275\312\226><\213\303\233=xU\023=8\007\241<\002y\313<J\373\226<\014(\335\273\374\327\273\274F\367u\275X\365O<\006\243\223<\002H\000\274\304\357\225\274\021.%:\231\247$\274\210Yp;F\223\310<+\377\303\274\334\377j;\014\276@\275\027\212\260\274%\362\022<\311r\n\275F\307\220\274M\323O=\214\177\251\273B^\207\273\022\0041=\327S\254\274\242\330#\274l\366 <\342\000\032\2754\231\211\274s\023]\2755\327\374;\306\237\3059)\233\';ei\277<3\334\344;q\237v<\377h\026\274\023\275\n\274 =\343;\033\210\267\274\020\327o<\264+5\274\210n0\275\361\255\216\274#z\261\274\030\324\201\273\252\020\203<\016\033\\<;<\202;\010|\t\275\360c)\274{t\025\274\312\232\200<\3557\\\275\332]\025\275\345\250\272\274?\3259\274\271:\353\274y}\335<\246\t\251;\035*\t\275*2L\274\225\021\002<|\231\274\274\361q\205<\272\347\315;\236\265`\274\240\233\314\274\347\245\342\273\203\036\364;@\017\326;\203\003q\274v(\251\274B\204a\274\025\206\236\273\nX\275<,\341\317<+\205\023=}\001Y\274\274\335\264<\374\222R<$\317\027\275lB\201\273\014\023\r=\317L\021\275\356L\262;La\316\274\316\271\251\274\335@\313\273\300P\t=p\371\n\275q\212\256<&\314\325<TGe<Q\006\272;\322?\245\274\215}G\274vb\360\274\332d\275<\337]\221:!\n\220;\270\306.\275\212rL;\251\257\321<\250{b<\177\217\216:\375\264\253;\360*\265<g\261\025<\251\322\235<\232\265\210<\367pO<U\030\215\274DH\354\274\230\nX<\261U\365;vi\260\274;\375\007\273\266\220\353\273\000yp\274@\357\n\2757\365\010\275\323Gc\273\362\t\246<\002\014\235\2740\237P:P\306\341;8\353R;\322O\220\274P%?\274\006=\215;LT_<\246y\004<\034\341\021\273\233\272\216\273\202\250U;\346\205\200:\326\216\037\274\310@a<G\034@<D\'x<\303\253\007=\266\357\233\274\217\005\326<e\211\255<\240kA<\302.*\273N\212\025\275\021\377!\275V\034\311<]\341\365\274\361\363(\2743k\303;\370\3630<.4\230<\236\356\332\274Q\213\237;\370\242\206<c\021\001<2R]<Zf\264<x\034\013\273\005B\221<YN\257<\236l\353;\232\257\236\274]\302\364\273\212\312\312\274\220\307E:\361\352%<b1\216<\215\036><\353\027\271<\232\371\027;\025l\344\272\372\255r:p[S\274\207\343\251;r^\010<\342\001$\273w\036\r=\313K>\274\277\211\304\273m;-<\227/8<1g[\272\0029O\274\335q\306<\265\307\275;\273\377?<\001vE<\307v\236<\240hk<\202\217\315\274N\"\343;s]\022\274V\331C<\351\332\312<\274\224\317;|\203\350\274\031\311\230;\344\210%<\310:\250\2731\022\346\2731V\337;\216\363\303\271\375\034\250<q\301l<\376T\262\273\n\213A\272\026\350\361\272\0051\317;\032\375\377\274Y\317r<\021\244\3519\2309\264\273d\355$<\037\257\234<\022Y\264\273\005y\006<\020\006{\274:G\303\272[\036|=\323z~\274\273\311\031\274\014`\2078\210\317g<\262\177\214<\347\031\272:DT\330\274\3676B<\311\214\n\2754\357k\274s\nM=m\263\236;5\351\336<Y\215k<u&\336\273\312\373\304\272z\2075\275r\321V\274\356NK9\345F\314;,\225E;2\205\312:v=M;\273yb;\002\014o;\364\236\252<\276\025N<\227\376\034\275\337\013&<\334\370\307\274\256\373K\274\346\352\333;\352\246)<\320\302\026\274\2014\002=F\321\270\274.\364\303\272\361\311\306;r\020\002\275j3{\273\227\350\005=\032r_<\233\372\272<|\344j<\355\241e\271\210\333X\274\351!\223\273\375/\300<\261\334B\274\263\r\273;\356\373\243<|\2135;\357\336\260\273\230AU<F\316\314<\371\244%\274\200%-;\272{\201\274)\326\203<\037J\320;\256Y\372\273\027\2515\274\226\211\030=T\322%;\304BT\273\305:\333\273\266\2024<\\/U;m2\376\2733\263~;e^\373\273\3237\t;&\355\305\274R\253\024\275\243[(\274e\236\000\274\352.:\274\241L\304;\373\'\213\274\3003\256;\370\367\204=\3121\303\273d\014\271<7t\273<qf\013\271\226$O<\351v\211\274bb};\305\305\000\272\350e+=C#\007=\031o\222;\013\000s<\2032\002=l\222\t=3\006\n\275\302s[\274\324\030\307\274t\0330<&\371T;\314\200K\274R1\235\273\324\024\005:Uf\n\274\357G9\274.9(<CI\221<O\332\242\274cN\271<!&\017\275\352L\360;v\221P\274\325a\004\275F\274:\274\016\000\256<e\253\353<\240\330\333\273\213\270|\272\303\324\022<`e#<\212\000!;y\241\306\274Qiz<S5\237;\237<\242<\204\204\027<\247$\242<\326w\373\273\265\003\332\274h\325Q\274#\265<<}\313\304:\366\345_\2734\024\026\274R\250\232<\301G\333\274d\206m<@\014U\275\373|^<!\351\267\274\036\036p\274\227\342\324\274\262\315:\274`\036\363;\027\3353\274\030\350\206\2746\363{;\034\262q\272 \237U\2741\322\307<\215\346l<\311s\344<\237\274\221\274p\032\326;%H\252\274\263\205\036<hH\023\274\025)\310;T\204K\275\253\232Y\275t\271g\274\217\"\263<jn \272.\211\254<;\020\371\273\332\237\010;\231\254\252<\263>\362\273\2102:\274T5\236;\325\233\200;8\314\177\274\230 T:\341}]<\340\247\213\274c\313E\274\236o\210<\330V\277:^\3239<\013R%<\206T\252<s@\001\275\201\241<<\345OF\274\026C2\274:\026\000=\316\014\033;\211x\000\274a\021l<\343\241\322\273\332\001;\274m\2032\274\343\231\013=\3505C<u\336\031\273p\364\217<\323 \234;\314K\310\270\rEX=\201n\022<\375e\274<-\277\007\274\223\246\200\273\2356\013=T\367\232<\345n\203<\325\000\266\274\206U\024\274h:\235<\267\007\203\274%>\221\271\272\267\335;S\314\014\273\370\345\354\274\244\341\255<)l\256\273/p\020=\216\207\003\275\255D\360;\206,\n;\0212;\272\333\002\261<\275:\301\274 \215\n\274\252IR=\234\255\264<.lJ<\302\361e\274\036\305\366;q6\351<\316T\262\273\2553\013=\376\301\224<\3133\371\2747\343>;{\211\251<\227\212\366\274\247\241\024=\\\200\312\274=Zm;\324$\354;\244y\226\272?\276<\275\272V\246;\222 \005\275\340_\230\274\2243u\274\r\n\333<D\362\031<\247\n\315\273u\207\346\274\313\350\200\273\334\332\310<\013\371\025<|?%\275b2\317\274y0\201<\t\n\270\273f\346\366\274U\277\233\274\265\332\247\274\316z\344\274\177\231\357<\020\314\000<B\336Y;\2165><\214L\216\274Zv\346<\026\362\215\274P\031\262;\001d\235<\211j\035<<\315V\274\244\270\217\274\r-7\273hZ\017\274\346}5<.\3135\275\364\274e\274\354h\322\271&|k\274\006\324\235<m\275|;k@]\272r+\024\275\2101~<S\361y=\311~\000=\352\244\342\273=\276\342<\221\304\n<\007\240\373\272\301\305\203\273\022\001\004\275N\252\272<\260\025\325<\214S\361\273`\376\022\275\\\003\231\274\240Vp\274\305g{<\250\007\365<O[J\275\r\010\271<\233lG\275\233\237\017\275\244\212\266\272\216\034\376\274\327q\356;\275\351\024=\334^\352\274x\201w\273\007\373\"=}\312\265\274\243\006\000\2752O\372\273\204\360;\275d\034%\274\306\n\201\275\253\264\211\274(\000\210\273\221\341\024\271\266\324\366<\305\343\317<\001 s<#\366\217\274\315\361\244\274G\013F\272\261\020\306\274\362\026\272\272N/*:\326\246$\275\222\276\263\273;\217\001\275\350y\245<\216\220\252<\331\221\207<\231\312\007\274\345\002\001\275\333\202\201\274\306je\274\356j\350<E>V\275m&\006\275\235\270\317\273\367\276@\274\273\022\t\275[\325\224<Dn9;\221\266\037\275\305\035\206\274\034\210{<j\234\300\274}/\243;\023\350\'\274\314\007=\272\244\026+\274\2352\276\274n\002\314;~}f<{$\337\274\306.\267;\211^\221\272\3175\021\275\276\2063<P69<\355N\222<\335\177\312\273K\r\233;\361A\240\272\335\235\031\275\001FH\274\310t\327<\350j\340\273\244\032#:\355\326\r\275\332\223p\274X\324-\274\330\035\311;\260\216\362\274\352\211S;\2543\330<\217TQ\274a\264\337\273\207\252Y\273\200\256\233\271\313Kw\274\001\177W<\351\032\326\271%\373\007\274\005k\254\274\202\323\227;A\250w<\330\377\203;\316M\032<\002\035\005<\324\247\331;\255\302,;%\350\024=OX<<\013\222n<\360\013\020\274\007\027\313\274I\330\r\274Mr\260\273\344\334\024\275\250A\261<S\247\351:}j\272\273\000H\017\275\267}\032\275\354\263B\274B\201\345<\310\320\034\273.\330\243\274S<\324;\342\371\311;\2735\270\273s\230G:\372\274y\274\0031.<\344\316?<\236Cl;9\365{\274\035+\005\274\025\305G;\251\257B\2745\337\205<RO`<\207&\266\27240F<\202\343\241\274\200M$=\031\355I<D\377><LH\213\274\003\226\016\274\006\314\301\274\213\030\017=\236\340\331\274\200\373\305\272\341\263;;g\224\355;^\265c<\325`W\274\334\002\225<\014s\005=\3423\'<\366\010\272;7\237\274;\220:L:\366\342-<\313\0322<\203D\302;z\251_\274E\304 ;f6\364\274U<\3529\214`J;\216o\236;\325\177\014<\222\353r;pe\205\274\276J!<\207,\265\273g0W\274\262A\231;QL\316\272\202y/\273\0374\322<\033\240\007\274Wv\017<\216fQ\272F\272y\274<>6<#mA<\313\220\350;\235\254\024<T\223\236<+\227\303;U\231\301<\345\220H;\300\314\327\274\022W>;\261\376\344;\227\013\2139y\213};t\322\343<n{\023\273e\226\363:\334:\026\274\331\250\341\272\n\360e\273\201$h:\305jz<\240\372\315<)\273g<\365\202\255<U\2014\274Y\007\365;\336\230\376:\330\276E\274z\316X;\201)z<\345^\367;,<\36790\2468<\n\277\231\274U=F9\020mx\274\317\252\254<\363\270o=\220\036\005\275nr,\272\317$\340\273\020\254\323<\270\220p<\247L\270:,}\211\274\356\207#<\304Q\360\274\300\365\372:\211z8=\0010z<\017\272\206<\334\014\261<\255\034\3279\334\326\337\273\014\007\225\2757\352\267\274I\324c\273e\235\217<KE7<UY\203<\341\'\213:\306{\212;t\324o\274\003\215+\273~\371\034<m{\037\275i\215\311;\335\t\275\273\027U=\272y\233\205<\361U\023<\356L1<\203\335\030=/9\002\275\360\036\350;Cx\237<\207\014r\274:\253\020;\364\240\"=\255\372\304;AV\024<\345\027N<\252\343\033\2748\001\'\274\201\0328\274]\314\3279\207\243\306;b\316\222\274a\006\265<\303\\@<\220\361\004\274Ka\300<fP\301\271\277\030\"<z\373\225<N6\246\272\235\356\326<M\n\324:\035\354\372:\003{+\274X\323Z<.?|<(\373\034;\"\336s\274\311A\214<\334\252\201<\375\022\306;\034\347\255\272\t\017\333;\n;\333;\214\031G\274\350\032\007\275\243F\311\273\007$\266\271\212K\314\272\\M\177\274o\324\233\274\236\240V<x\'\240=\032\0069<_\255S<\266\037\236<\013\232+\273p\3020<\361^\033;5\363\370<(?\3348\225\261\331<0\017:<\001L\022=\233Z\027\273\273\277\020=\274\344E<\t\212\035\275,w\267\274\275l\341\273\334C\233<w\207\023\274\\\337\266\273\376\350O\274 \002L\274=~\'<\370\266\177\274\014\240\317:j\372\310:\274\346\277\273\212>\303<\356\\\027\275m)\207<\036\323S\2731&\361\274\312\336\270\274[\334\275<\361p\"<S\033\314\272\334i\007=\365\307\325;Y\212\224<c(\0229\033\373\036;\"\177h<\220\216\204\274\364P\215;\317n\364:{\225\254<v\247z\274\376\365+\274S1\253\274\327\003<\274\354\221/<`\001\240<\000\255\010\274)\323\013=|\000T\274y\250\272<\241\344/\275\246\327#;\3513g\274\207c\317\273\370\264\326\273e\350\300\273\276\333s<e\257.<\306\234\340\273Na\213<\335\325\344\273\222I\033\274\367\254\022=\021\010d\273\363(\205<\227m\206;\375\370\251;\023!\023\272\001.\035\272/\231\222;\345By<N\2536\275\317\rn\275\307\020\261\273\244\214G\272\007\034\226\273\n%\363<\223\244\304\274\030B+;}\005\364<H\263\035<\2776\030\271J+\202<\351\000\036\273\266\310W\271\270y^\274\270\263];\036\014\204:J\016\325\273\350Y\014\274\006\001\304<\330\321O\2748\350\201;\345Q\340<\344\212 \274\3123\n<]\232\274;\352\203\215\273\2679\035=\316\266?\273F\315l\2747P\267<\271\266N\274W\332d<)Eo\274\2557\374<\233#\031\274\314?9\273\031_\271<<m\305;\241\250I\274\256dG=\035\315\213<\274c\300<\301.\276\273E\0253<\007:\220<u\361(<\212\022\336<i\215\270\274X\344\205\274\004|\265;\343\007\265\274\2420\232;qFB\274/\227\013<\232Z\271\274N\340\024<5I\005<\270*\323<\033\270\371\274\316\351\031\274\372%\211<\006m\004\274\3215\265\273\350\023v:\257\254\320\274Ow\345<>/U\2742\307\271:>\354\341\274\336f\236<:L!<\216\301\217\273\242\361\r=\333\274\320:M#\r\275\tF\255\274?\231\240<k\001F\275\006\274\345<\237j\236\27401D;\226\033\373<\177\270\207\273\226+%\27594\213;\325H$\275L\031\317\274\224\216m\274(M\327;\376\266\210<\314\322\216\274\233\255T\274W\316\347\273\350U&=\242\355\203\273\211 \357\274\273\252\317\274b%J<\371F\366\273\263O<\274v4\244\273p^\360\274\340\206\245\274d\366\256<\261\031\253<\255\030\2049\343H\236\273\373=\203\274I\351\313\273^\244&\275\230\205\307\273\264sH\274\373\251\274<\037\035@\274\377\354u\273\256AI;M=\313\273{\240\023<\025i3\275\357C\232;+\024\223<Z\214\265\274i\362\223<\265\032\320\273?\310\314\273\263K\002\275\306\025T;\342\313\221=\nv~<\016\243,\274\303\024J=\023\273.<\350C\237\273\267\027\r;\206\026H\275\306>\235\272\315x\225<\253\203h\273\355?\n\275\226\366l\274\344n\302\274\255\314\256<J\246\236<\210\277\032\275\2253\002=\306BY\275\343\203\351\274k a<\031e\222\274\203[\226\274\036\"7=\025Pc\274>pD\273F\2103=,\177\314\274\\\342\025\275\024\276\247:f\377\312\274\317\272.\274\002Kw\275\241\'\000;z\335G\274\356P\203\274\340\315\025=K6\375<\243\036\207<J\354\251\274in&\275\231\242\006<\374D_\274\'\331\261;\202\275\201<zh>\275\361\354\313\273G\013\003\275\255\253c;\3274\024<G\346\004=\243\377-;g\334\027\275\206\214\250\274\243\236\001\274{3P=\224\315\306\274\301\341\357\274&\"$\272\250\267v<.\003\373\274\363\302Y<\3477\220\274j~V\274\277\255\t\275-\315V<Y(\344\274\377\"\361;j\212\262\274\023q\313;\367\366\333\274\265\036C\274\257\250\220;5\207\272;\231nE\273i\312\271\273\3114\340\271\313\'\303\274\270\371\016\274\311\364\233<!\\\022<\306\353\004\274\270V&\274\002\024\240\2746e\n\275\3655+\274\332\351\006=bi\206\274\245\203\313<\rb\215\274L\370L\274d\2106\273+\240Y<J\240\310\274+9\375;H\244\260<\311\306\304\274\346\356#<\266\227\313;\025W\207<\022\255\276\274Uy\256<\227h\304;v8\r;\337\347\001\275\t\201\315\274\r\234\254<,V\220<\016\246\243<}\037\013<\365\255\353<\366xA<>\225\235<\320\253\301;\341;\225<\n\316\024\274)m(\275?\217z\272w\030\266\272Kf\035\274U\223\001;\272\263v\274\363A\016\274EjH\275\356\324\243\274VD\2109\r\276\027<\353\237Y\271\036\243\374\271,a\216<\272\033\264<f\213*\274\366\030\243\2738\300\355\273\351\361\212<\001\231\013<\213m\212\273\236$^<\373G&<\035\227\334\274Ja2\274\344\352\000<X\201\244\273S\232\263\272\364o\234<\2504\262\273\332\\\r=0\361\306<\'X\253<\033\002\211\274pb\014\275\363\301\360\274Q\265\202<F\225\334\274\217\213\244\274\032T\021<\245\255\004<:\340\233<\003\016m\274\332\223\260\271*\221\311<\212\0009\274\3554J<\200\327\344;\017\004\243\273ru\220<\227\354`<H\331\010<\332c\226\272\240p\306\273]\035C\274\373=d<q\316\212\272\035\267+\274\2215\210<\346\344v;\324~\210<\254X\372;\225\177d<\024R\327:\372\316\207<\215\205\3118e\223\204< |\035<c\376\2738Hx\210<\250Y\203<mA\211\274;\340J;\276\316\031\274\025-\367<gy\300;$\356m<\334u><d\327\217<\320\350V:\323j6\274\272{\205<\337H\031\274\362\242\375;d\211\235\272L/I:W\r\003<\263\030\023;\354\242\177\274\363R\257\274G-%<oV\233<\377\325\343<^\377\256<s|\247;\212\332\366;\276\377\275\272I\222v<\207\205\332;\247s\274\274\323y\224<\032\2667;.\030V<\246\227\022<a\352F<\237\217h\274\227\033\261<uf\207\274\030z\2629\326\022A=\257\352\372\274t\2340<\372\206\347\273\242F\210<\263V\007\273`\021\340;MV!;\006\204\302<\313@\253\2741\364\231;\251h:=\001\354\265<\350oX;\215\311\271<0\002\236\274\ne\237\274\003#\212\275\276\214\023\275\377\312+:S\242\336<\007\300\234<_\273X<\003\01469N\370\334<\343\261d;i_\024<\325\245\032;F<A\275\305\026\\<\274\231\223\273s\314\025<\244,\345:\016]\267<*\346O<\347\377\003=0\n\257\274\373\024\000<\377]D<e0\204\274\275hZ:|\365\370<\372@$;\202\211\243;\272\023#:Z\214+\274L\215\177\274l\351\354\273<\203\301;\310M)<\244\303\306;\225\256\246<\242\217\354;Z\374\n\274i\324,<\032\266\246\273\030\337\250;\271Y&<\256\026f<\0005\243;/5\213<\305\001.<S\246\305\273\220\000\366<\261,\327<\337q\257<\nw\241\274ad\275<\277\254c<\215a\307;d\231q\274\265\270\r=._\317:m\320\001\274\252\022\353\274:\300.\274Y\272\014\274\3679\006\274Y\277\267:\376Q \274\302B,;\"6F=\340,H<8 \006<c\254\357<\004\207\352:7\352\021<\032\263\005<>\352\251<^\340\375\272Gg\257<m8\272<\366\243==\215Nl<\321\177\022=?q\3649\266\207\006\2751\375\013\275\363$\325;v\273\257\272\260\306\317;\206\230d;\337\354o:\363\306\213\274\264\221\246\274\005\020\354\274\004[\345:.\240\272;\333\207\007<;#\317<)P#\275\321S\364<\021\376\000<\263T\031\275ow_\274\357\315\013=\003N\351<\250e\203\274Q\272\237<3.X;K\330\202<\030H\212\267\351j\334\274\377\213\032=$\336Q\273\232\022G<X\302\025\272\005e\334<&dg\273\006\014\231;\306\311\322\274\335\256Q\273&\214>\273\270\273\303\273\234}\000<:\344\370<L\200\222\274X\376R=\212\246S\275Zy4\270\361\357\231\273\031\340\221;\311X.<\341\207\334\274\354\362\227\274\342\227+<+\253\016\274\013K\342;Z,\020<\265_\036\274\333W\t=\007\000$\274%X\377;A\236V\273>\327\240<2,\201<\256@\360\273\273\207X<e\017l<\t\303i\275URN\275*\240\r\274}S\035\274Aa\022\275R\356z<\313.\006\274\302\305\377;\000\337\273<\253\270g\270\013\253\034<\224\020D<j\371\210\273 \317\234\274\240^\212:0e\017\274\027\317\262\273\250\317u\274LsO<\243\r2;\242x\271;\376\254\242;\270\245j<\307C_\273s\220O<oa\276;y\272\305\273P\212\225<[\273\"<\360\033\355\271\005\277\006\274k9f\2742\301\371\271\257\204\221\27430f<\304\357\000\274\324\2079;\217\207\207<#\3415<\207\234\347\271\202\244\355<\262\236\214<\341\357)<\204\232\310\274?\247S<\232\361\000=\332\370\332:\201E\361;!\005\237\274\203\032\322\274As\310<m\244Q\274\330S\227<\204pG<uv\"\274\207\205\202\274q\241\006=X\230#\274\367{\376<<\002\000\275h\037\213\274\'\004\323\272\371u=\273_\334\312\273\317{\221;\021\322\372\274*\203\354<\2534\262;\237\236\345\273\356)\270\273\204\304\270;{]\370;J^M;\026\023\263<\257\336\213<W\022\346\274\201\355\026\274\'\000\305<\014\007\023\275`U\035<\336 z\2747\330\262<S>\036=\210\206\007<?\361b\275\257Pz\274\002\2766\2759cO\275\335c\030;\206\301\275;\017zX<\262\241\202\274\353\357~\274\334*=;\303\t\217<\321\310\275;\003\310R\274\314\331\276\274\254\027\264<7\240\026\274\334\361\307\274\367\347\311\272a\316\242\274x\002\356\274b\341O<\355.\357;F\005\273:R]\"<D\230d\274I\323\004\274\220\230\007\275\252\306R\274\335\312\353\273\276\271\';\264f\274\271\024\024$;\273\244x<B\243\333;\312\313\276<\222\021\036\275a\222\003\274\363\276u<,\013\251\274\360p\320<\004]\266;\372\252\032\273,\230,\275\022\310\207\273\217)~=\r\312c\274\215\234\243\274^\300\350<\020\2057\274\224\301)<\364+\216\274\374\365\204\274t\030\000\272\257\333\003=\235\304\246\273\256\"U\274\205.\244\274=\035\260\274\261\351\005;*\373\017=\254\347S\275\366\241)=l}Z\275\351\360\361\274\234F}<\325\220\373\274i\037R\274Y\t\006=k\345\204\274\203\224s:\225\331\313<tn\370\274\010!\037\275\314\001f<\023\306\024\275\267F\030\273o\311\205\275\364\270\234\274G*O;\275\352\275\273\'J6=\006[\273<\004\345\252;\3032\346\274\343hp\275\261J\013;F\025\276\274\306\264\371;\002\020J\273<w\326\274\316\001\225\274\030\323\254\274\214\354\035<W\233^<\307\3513=\321\347~\274\264\250\321\274\302B\004\275\211\240\234\274\202Q\004=8\3176\275PB*\275\255\273\245:\334X\361<\242\351\022\275\002%a\272Y[v\274\315\252\316\274\316A.\275\027\300\232<\250\r\010\275V\220P;\221%\241\2730c\362\273\216\216P\274b\030\272\273\036\002\017\274U\037\233<\033j\267;\1778;\273\323\352X<\207`\366\274\360\000\240<(B\257<?\000G;\021\276g\274v\230;\274\215a\r\275\030C\315\274\351y\201\273\006\2509=\341\001\250<\2409S\273\2317\354\274W\327\025\274\363\234\316\274\035\355\344:e\027;\275-\274\013\274z]\014<\272\367\226\274\202j\035\274m\343\221\274\261\273\033<\251\0239\274\205_\201<\267\000\004<QW\242<W\027\237\274\230\252+\2742)[<\023[\224<.,\370<\nH\035<RM\264<\205\276\306;\351\317\004=G^\3418W\336[<_\305\355\274\030\375+\275\277\315.\273\224\241\255;\000\265m\273\007\314\262<3\332r\274\216\375\240\272\316\347\343\274B\342\020\275W8o\274\343T\254<\315\t\004<9g\236\274\013^\313<dN\256<S\375J\271YSv\274\300\376L\274+r\245;6\205\005\273F\374#\273\340y\033\274\277.\020<\340\343\271\274l\017\223\274\347!\232<\023\361P<\364\326\331:S\013\276<\312\254\230\274\376c\321<JxT<\t\020=\272\24162\273|\253\007\275\354\261\322\274\222\222\234<\215\336\031\275\330T\316\274\237\351;;\307|K<\307\340)\274@\325\023\274\277F \274\010\t\257;\361~\212<\004\252\257<Z\336\335<,G\240:\3749\237;C\226D<\213\251\332<~\021\375\273\006T\216\274VK\000\275\020\032\334;S*\200<\364\222\003<\327\3145<qo\334;x\263\365\273:x\205:[\2345<\004\362\206\274\213\254?;T\210\347\2733\221?\271\201\246}<\027gC;\037Y=;\243\030\216<\r\031\247\274\'[\305;o\335*;\310=\264<>\014k<V{&<\004\036\351;\313\220m;\344\277\225<1\2516;\277\206\253<~z\027;\201\371\210;#G\251;\331/k<\037)r;g\372 \273R\321\317:\355a\205\274\200\024\201\274\260\204\334<\301\255\336<\371@\257<\265\316\277\273\"\364\231;Xj\200<\306\364*\273\273$\2669_V\273\274B\307\013=\025\346\302:&\225.\274\277r\361;^\367\307\273\323*\315\273\352YN\273G\305\247\274#\224[\273\357\016T=C:\216\274\036\000\271<%\2416\273~C\342<\266\312\001<\352\034Y<_\016\003:=\nx:\301\225\246\274\n\352<\273\207\027\336<H \277<E\237\304<`\301\t<\036\247x<EZ\020<V\223\266\275\207\363g\274\372{I<\246z\335<\010\236q<lI\377<\253x\240\273\236r*<zbC\274\276\355\240;\210\265\204<\277q_\275\022\030\264<\254\r\247\273BNi<\003\242D<\2300\213<\267\242\240\273\023\355\320<\351\317\005\275-\327\035<\231\025\363<\212\322\231\274\257\265\223;8\262\234<\327\350^:\356\357%<\271\311b<\"o2\274ZU\006\274i\021\223;\223\322\375\273J6\311\273\261\203*\273\3464\234<\034y\254<\206\032X;\271\2400\274\004\221A<*\256\257\273i!~\273\362\'5:=\374\236<V\"\200<\273F\233;\340:W:k\003\272<f\216\017=\326\037\300<\244\022\212\274\370\211\220<;\363\243<\215f\247<\253X\004\274\227\331\000=>_{\274n\327(<\361r\302\273N\372\035\274B\312\001\275\0130\255\274\373\235:\274\330\326=\274\024\021\"\273^/\007<\013\244`<\345\312=\274Dg1<|\247W;\2433[;@:\237;\013\254\323<A\037/<\230i\261<Q\320\002=DF\r=\220\214\004<XO\324<H\266\030<1\010\314\274\230\215\001\275\330\230\206\274b\031\262;CZH\274\252U\001\2740\254\242\273\000,\257\274A\214z\274\313\217\350\274\370f\224;b\374\323\273(OT\274\311B\t=\201i\344\274iK\210<\rg\322\273}\276\331\274\256N\020\275\264\350\244<NfH<\0171\302;\317>\022=\332\326\314;\023\332\300< \217\236\273*}?\274\270\277\207<\004\323\303\273\232f#\274<p6<\317L\'=*\373\207\274\355\336)\273\215}2\272 \020K\273\237I\"<\327X\376\273\254\250$\273\215p\033=\326\303\201\274-< =\262&\325\274O\342w\273\234p\007\274\326\255r\274\217k\275<\351\353x\272\270\232M\274\334\3542<ZV\270\2730EN<Yq\023<f\021v\274T8#<F2\234:wy\232<\304x\254;\204\366\240<\304bh<\030\376\024\274\265\301{<p\014\037<\006H&\2756B\243\274\314K7<\256m&\274(k\000\275T%\256:\260\236%\274\000/\337<\272-\313<E{\257\273\234\272\272;\373\r\212< \235\337\273\033\233a\273\270\006\370\273\"\301\240\274\241\030\002<\202\356\255\272j\270\301\274>\212\307\273\201\013\304\273\232l\204\273C\014\265</\253\216\273\254\214\324;\232:\030\274\246\n\225<\303\002\265<t\022\013<r\275*;]\273\212\273\216\002F<\210\246\243<\n\022L\274R\273\236<$\2062\274\356\330\217<\377\324g<I\366\225<\0269=<F:\373<\215\257\363;yFg:bm\346\274\366\233\3739\232\032\023=\035\327\304:\277\224\211<$\322\264\273Y\346\017<\321\3535<\276\324\226\274Z\2212<\262\032\214;<\260\347;\200.\372\273@\021\006=\222\316\247;\372P?<\270\263\337\274K1\204\274\271\000O\273\235Q\034\274\253\234j\274Ck\227<O\313P\275\364\010+=x\207\036:z\244\212<\353\367\215\274\365~\2069:K><\2716\341\272\277\322\327<\177cI;\315\335\246\274\032\247\244;\375\265\323<z\035\306\274\261@\215<oR\013\275\224\251\315<\253\275~=\356L\322<\207\220\216\275\276a\200\273\251\035\212\275\227|8\275#\375\023;\276{\360<\305w$<\027\354\305\273\317\245\324\273.\347@\273\226|\035=\037\342N\274\204\346\343\272\212GK\274\244i\034\274<\370`\274\256\332\216\274\223\332\r:\243|;\274\037\230\241\274K\306\216<a%\220\273@V@;\342\343\030<\347\316\302\274\2555\215\274x\210\331\274\033[\264\273\212^]\273\024- <S)\032<.\342\203\274\t\343+<\353\216[\273J\"\002<\327\245S\275a\232+\274\006\275:\274~\204O\274l3\026;\324n\017;\023\267\247<\342\356_\275\241\310\240\274\236\277\025=\240\375\277\274\032\036\364\274\2408\r=\260\367\334\273\255\3676\273\313a\'\274\305\001\340\274\200\266x\273\327\351\221;\212v+<\262\030B\274a \330\274\304\272\340\274\342\325\371;Fj\277<\036\020j\275\022\260\246<\005\003\034\275\342\274\211\274\314\264\353;1\026\360\274\210\023\354;]\310L=\242\"\251\274\346\350\237;\250\222\t=1j\323\274\324\332\014\275\3440R<\250\246P\274S\333\034\274\352\177\216\275\312\350p\274|\207v\274\311d\200<}{(=\203\374~<\313\343\350<\222\274\310\274\234B$\275\224B\211\273\315\221\306\273\227\350\026\273\237\233\220</I\351\274\372J\201\274\267\360\241\274s\353V<z\374\357;\316\010\007=G\245\216\274\350\253h\274]j\342\274\020\300\016\275\326\036\231=afc\275\371\204\241\274\265|^\274\020{\255<BFH\275\020U\303\27333\311\274%eP\274\265.U\275\246\370_9\310\331\242\274\021{\321\271\017\034M\274\312\001w\274=G\234\274Bz\010\274}/<;\356q\2629\217\314n\274?\376\372\273\327<\276\273\035\0311\274\365\223\260\272-\342 ;\252!A:\202\250\310\274s\355\353\274\256\332\035\275\366\266~\273$\301\2129#G\022=D\261\207;\347\336\273<j\2640\274]\234\241\274[^\003\275\025\202\017;\251\010\010\2753\203\244\274rw\330<\357C\367\274\314\324\363\273fDk\274ZQ7<\t_\265\274U\337\345;-\2546\272\374u\210<\327\206\032\275J{\342\274\r\243\206;\320\306\036<^\252\347;\306\254\200<\365\354\304<\323\2130<\\yC<C\340\333;i\255\245<\316\241W\274C\377\225\274\025kr\273\033\367\025<\026t\217\272HNX<\346\216\022<N\324\234:c$\037\275\"\2212\274%\305\321\274eE\232<\257\3778\274\037\201\310;&\243\035<\013_\226<\250\010%\274o\020*;\265?.\273/m\033;\330\031b<Gj\244\273\265\343k\274\375x\205<\307v\001\274\207\237\316\274m\345\'<\036d\271<\025\241\202;\343\342\252< \377\003\275<\360\336<\360\362\025<\373\313\263<\203R\331\272\266><\275\3108\000\275o8\232<k\245\007\275\370\212\217\274\017\230\001\274\342i\312\273\205\020\005\274\243q\243\274y\255\003<\272\007J\274\007+\374\272\213\373\312<\342AX<\3201\344\273\345^\013<c\027\201<j\177\371<M_\345\273M\271x\274\267\324\251\274(.\352:\325\327\366;W\275s\274-\347\2539_\334\353\272?\223\252\273\273\273\006\273\227ku<O\314\314\2734p\217:~\226\276\273L\206\361;\023r?<\027C\237\273\267\220^;\253\r\312<\333\370t\274Gb\326\272\t\311\2209\000\037\223<\220e\257<\266\246\313<5A\246;n\337D<\nD\'<\223\306\200\273\013\306\241<|\335\260;\340@w<V\350#\273\352?\330<t2\334<\327=\016\274\262\2126\274\3336[\273\330Q\275\274\270\2166=A\314\032=\000\017 <\234\275\036;\026\375\266<)-\346<\372\332\343<\306\305\017\271\227\214\256\274\262k\212<\250\354\3677\327?\3709)\0058\273:\257\215\274H\r\224\274\212[\234\273\326\216\223\274\357t\3066\177q\335<`\3671\274\022\375\310<\205^\007;&k\263<\024UR<\2143\210<\006\373\277;yr|\272Zh\267\273h\225\337\273Bo\323;\034\342\377;\032^\000<\317@s<\017\373\016\274x\313X\274\t\373\214\275w%\017\275\n\024\234\273{\257\223<\n2#\273\245\n\356<\031\032\302\274\260\244\371<\\\014\251\274\365\376\373\273F\341\244:\232\246\276\274C\255\304<\351\376\202<\307M\274<\270\351\352;$d\006<\024\350\023<%;\016<V%e\274\250\000\243;\331\021\221<\376o\006;\032\245\223;O\225\215;\260\367\035\274\274\206\267;dp\235<\004\343v\273\373`J\273b|\343;\304,R<\351\366\322<\247\276\030\273[^\034\274\256\222\037<\224\210\274\274\372\306)\271\231\332\032\274\335\363b\274j\\\226\272\\X\253;\'\327p<\0064\275;\317\177\177;N>);\343y\037;\r~f=^\344\200<\375\203\340\274\222\371\255<y4\376;\342\263\276:\220\263\014\274\277m\321<\235\274~\274\353\000\002=\327O<\274\200\321\323\274\233\353}\274\311~&\272.\274P\2745;\317\274a\254f<\317WC\273\315\241\314<\207\027\303\272\245Yc<\245\177W\273\364\341\211\273\265|\303<\017\337~<\302q7<\331\332,<\372<\314<\360\">=\347?n<\205\273\022=7m\253\274im\001;\031Z\002\2759\274\265;\023\014\212\274\345\215Q<\324\226~:\245\270\245\274\261\261\262\274.\262\376\273n\315\323\273@.\030;I-\325;\225\264\314\272\365\315\026=\317F\210\274\250\223\272<\020\260_;\275\253\374\274\216R\337\274\374\305\335<\023z\255<:@n<\253h\235<\317\336\032\274\316\337\r=&\222\036;\2062\030\273\206\301V<!d\273\272\303\364\224<\267_E;8\362(<T\003\373;E\254;:\367-\313\274\007)\201;\261^\213;K\367\t;\210\264\035;\305\355o<A\346%\272\241\347:=\230\345\251\274c\027\343\274\026\030\226;\005\360\305\273\037\360\250<0K\020\275\305wX;\334K\\;\0028\222\273\330\017a<\237\320\177;{&\354\273\245Jc<\0175\000\273xi\327<\202u\024:\261\237\224<\212\005\204<\310\216\034;8MN<\302\020\245;\374W.\275f\235\312\274\222\003\232<\362\326O\274K0-\275_>-\272\241Jc\274\351:\375<\352!\035=\003`\035\273\002i\251\274.\212\226<f\016#<\327\207\031\274\272V\366\2739#M\275\207J\306<CH^\274%#\225\274$\020\204:z\303\000\274\323bG\274\033\027\231;\251J\255<\303;u<\371}\276;\035\377A<8\002\022=\205k\305;Jw\022\274r\203X<\335\023j<` \230<_$=\274pEo\271\037b\272\274\362\3039<k\304P<\364.\002<\313}\346\273\350\261\016<\364\177\225<\273\314@:{\301\320\274\003\370\202\274\004\\\315<H \025<\212\331Y<\3260\376\273&\351_\273\317\rd\273\ts\250\274X\212\310<X\333\n=}}\303<9\265y\273\242b\301<\2374\245\274\035\003\224<\264\014\201\274\267\226\244\274N#\032\274Q`I<\235\344\225\274\220m\321<mZ\201\275\340\322O<dq\306<\353<J<\217(\227\274\364\025B\274%\207\321<\262a,<X\342\331<{\312\272;\312\372\037\274\336\362v<:\233\307<\272v\026\275\267%/<F\262H\274rF\342<\007\237>=\361\363\215<S\001\223\275\025Y\225\274\333\343-\275e\264\216\275\323\375\305\274\036j\360<Li\260;\320\007/\274\221\025\266\2717)C\274e\231\302<\366P+\273\006\002I\274_\035\266\274\346;\032<\335\307=\271\332k\016\275nk\033<\017\341\321\274\324\365\177\274\021\032\214\274\272\232\025<8\234\363\274l\312+<\271\374\301\273H\205\355\274\021\023\002\275,\260R\274\223\300\263\274\267r\225;U\333_<\007$\227\274z>!<\021\367\216;\\\270\230\274\244\251D\275\031\031\\\274\311\002>;\351T\230\274\264\312\302\2739\276\272\274\354JT;\010\307\'\275]n\354\274\027\331\262<\355E\035\274\213d3\275\'\271M=\221/i\274\277\201v;\306\275\272;\310\216\215\274\303\3020\274\0327\005=\2704\276\273\007\266\'\274\341\\\227\274lc\005\274v\244\211;\263M\305<\366:\020\275%\2152=\232(\020\275\355\373z\274Ob\261<\301\311\255\274\214\250;<\277\302\025=\333\227\321\274\236\267\321:m\021%=\025\360\267\274\273R\343\2747.\355;\212\035\311\274\313\216\t\275\357$\215\275t\320\351\273PK\340\2742\373\350;#\364\036=v\377#=\t\371)<%\277\322\274\t\306-\2756\275T<Ld#\273\033?\310\272@<\236<\001\317\312\272\360\224\265\273\261\022\031\274l\336\310:\201\3540<\r\306 =N\222\324\274\\\376\210\274h\273e\274]\033\010\275\325]H=zDE\275\027\361\220\274\333\245\033<\024\336\243<\234\245\020\275u\177\353\273\177,\217\274\330#\235\274\234?6\275`f\246;\352\237\234\274\020\032\3119\373\251\014\274&\330\000:\372\213\272\274\252\302\243\274 k\245\274\242\221\364\273s\315i<[\256@\274j%^;\267&i;\207\354\322;\301\376\256</\231F<\032w\211\273\224\336\366\274\tD\206\274R\233|\274v\010\254\2740Y\033=\216\025\376<\354\025\267<\360w\226\274\2661\t\274\021{\220\274i\211\253:\030\030\021\275.\'e\274\334\233F<8\337\004\275)Ti\27405\211\274&\0319<\211\004U\274\n\007d<\214r\030<j\201\257<^\242\017\275P\275\006\275\261\372Y<g\305\317;\024 \t;\357h\243<\247yv<\336\'\023\273\330\244\256<\367\321\317;\363\370\273<]\306\220\274PB\206\2743b\231\274\325\233\037<\263xt:\267&\234\273D\203\270\273y\350\334:,\212g\2744\016\262\274\323\026\352\273\"\234\032<\234\225-\274\032\340\t<6D\346;\273\003\214<\353\243\243\274~1Z\272}A\n\274\312\261F;\316\334\237;\023\241\250\272\217q\222; \363#:\320\270r\274}\265K\274%j:<\231u\035<\365\273\003\274\036\253\333<!\200\223\274\216\r\217<w\317H<\345|\231<\253\025\204\273\353O%\275\261\227@\275\344\257\204<\000\312\230\274\215\034\214\274\355\276e:\323\"\217<\203\231,;c\377\273\274\244\244o<5X\033<.\244g<\366O_<\247\235\261<r\312R\273\217\314,\272II}<\301\230\315<\'\200\350:\347\177\256;\216p\310\274\300\223&\274\340#O\273\222\321|\274ho\024\273\277=\204\273\324\357\001<,)\344\270\257\326\237\274 4\217\274\317\353F\274\t\371\t\274\232\034\241\272\314\230v\274\337\247\307\270\366\347i<\333tH<-\001\204\274u\232k;[\225\001;\014&C<\356\177\335;\374\027,<\325\016\246<QcM<\233\n!\274\006\271i;\222I\356<^\332\212;\3401\021<{;\252:\374H\260<\271i\301<\021\241\346\273\016F\215\273\354\336\322;3\233\272\274\205\310:=T2\005=\323\241\210;\300C\222:\035F\263; \312\204<\013\353\010=\007E\031\274\363p\225\274.g\240<\201W\223\272\341\315\000\273q\207\"\273\206\251\305;\307(\026\274\227\334\276;V\232\236\273:\354)<?\201\312<\257]\221:)Y\205<o\014\260\273{\314\367\272\020\323\254\273\\\340\247<\030\267F<\1774\323\273\374\274\277;I6\360:\2128B<\3639\274;\n\361\221;\204\307\342\273=\"\'\274\356\ns\274`v,\2759A>\274c\324\031\273l\313n<\210[\336;\310S\221<\024\366\247\274\355\315\025=T/\216\274\233I\310:\225\277\272<\254\352\313;\366^\375:9\257\021<\231E1=\315*2\273`\353\345\2710\334n\273\251\334l\273|\250\334\274C\322\315:\200c\204<\247a\014\272\022\'&<\340\'2\274\253\304s\2730\3524<\250#\201<\315\324\264;\257\260\273;\006w`9\275n\233:\234\253$<\246\372I<\370R\'\274\225L\314<}c\0049:\260\372\273i\255\206\274T#\000<NPK:\201\326\202<\242\3310;\330\017\361<x\372{\274\374O1\274\252\\T<.\037\200=\344\362\205<O\321\r\275\010Q\027<\221\274\357;\374\0060<\362\217\225\274\215/+=\243\032\225\274\"k\010=\037$\322;;bz\274X\257\r\275\266p7\274\206~\020\274\235\t\2678\304\006,<=s\004\274\253o\002\274\021<\374;,V\324;s.\257\273\223\347\275\272#\324\024;\023\241\344<\304=\317<F\377\231<\216L\370;?B\003=cb\303<zVS<\226]-\274x\035\201\273\271\362\006\275:\203\236<\260\016\002\274V\021\303;a\030\013<:\013N\274\\\355\306\274.\212\255\273K\352\r\274\001d\304\273\334\330z<*\262a\274\212\344\311<\030]\220\273\356\005\342<Umw;e\216\265\271\266\020\366\272qM\310<\227\217w<\327\364\246<\367\306\302<\305]\353\273\272\274\177<\032\374\360\272n\034A\274\312\2419<\371\351w;w\274\2349k\246\001;\010\025\202<5\237\231<>t\267<\030\337\321\274\271\217\035\274\314MH<\245\250\023;\303\355b93\035\324<>\322\3167n\007J=\357\264\023:tE\016\275\340\202\214<\256\240\246<\357\237\310<\223ec\274\2646\366;T\013\345\2735\t\323\274\343 s;\247[\204<\231M\246\273\247\222\343;&\367\315;}\025\243<\206?\2249ta\336<\326.\215\273%*\003\274jJ\300<i\264\201<y<\237\274\037\370Y;>\370\225<+\034\376;\375\314L\2757\202w\273=7\313\274\274\374\324<\340\277X=pE:\274*\244\247\273\"\314\340<\374\301\036\274\225\025\302\274\357A\"\274\301-\366\274\202`\240<;W\252\274\326\315 \275\272i=;t\0363\274@\r\240;;\377*\274\362n\370;\357v\326<\001\3250\271j]A<+(\270<<w\224<\305\032\250;\301\307\216<\'\262\t\274\252\200\276<\237F\216;\311Z4\274\332\370$\274\313g\230<).V<^\310\017<\377\306\202;n_g<\322\265\250<pF+\274q\022\002\275#\217u;s2\204<\332\276-<\325\235\260<\327\247\016\274%\343\246\274\2727\013<7\rX\274\235$4<+\273\261<[\300\r<\344\341\266;\372\303\333<\265.+\274\223\007U<\027\224\202\274\2639\331\273;\233\n\272\355\200\231<\242%\266;Vq\032=\016v\177\275\260\200D<\323\003\371<\2609\013<\303\2450\274\276\336\333:[I\330;W\354\360<\204\226\222<9\374\234\272\023}X<:\020 \273<1p<2\010\364\274\360\243\264;\347*2\274<\3765<\rH\202=\026\224\366<N\207A\275\361\022\274\274\275\005o\275>\017\200\275\237\267\316;\362/\272<N\340\223<\267\353\260\273H\0056\273t*\305\274\242D\023=2F`\273)\320\337<\254\277\202\274L\013\n\274_\211+\274\350(0\274\303\000\"<\351\356\376\273\327*\323\274\335\022\326\273t\346\357\273\n\313\243\273\240\335\022\274\010O\214\274\022\277(\275\376\312\213\274\000\264\271\274\372D#\273|\336\260;\274\3016<UZ\372:\273\242\330<t_\265\274;\314\266\273\007\352\024\275\351\323\037\274c\t\016<\230\312\307\274\340\336\313\274\301\342\337\273\360o\315\272D,\002\275\220^ \275\363\204\034<JR\212\274M\374l\275\324\205\304<(\020\021\274\363\341\026<\213\273\221:\301\361Z\273\007\335\002\274\276\301}<\362E\006\274Kz\030;\337\236\235\274>\251\226;\263\330\352;\361\006\016<\327\226\r\275\0376K=f\326\014\274:\202\364\273\315\251\263<|o\244;_\213\222<P8M<\361\255R\274\034U\273\272Xs\006=\361\332\317\274|\217\016\2757G,<\241\336\001\275\366B\233\274k\275!\275\243m\330\273\304U+\274|#\273<(\3650=)(H=\355N\033<^Q7\275\352C?\275\351\"\237:\353\320U\274\367\340O\274\251\200\327<C4+<\2512\233\273\315d\370\273\025\034\\<\202\237\214<\241\006\021=u0g\274\323;\375\273\027ZD\274k\322$\273\250\361z=\006\006(\275Z\201\226\274\240\227=\273-\273\375<j\264\034\275]#M\274c\344\000\275h\272\'\274ok:\275\224\350\314;]\251\034\274\235\\6<\244\310X\274\372I\262\272\225\336\377\273Q\t\262;)\235\222\273\241\332\024<\203\016\366\272:\216\264;\0033\003\274\322.\301\273hq\"<\253,\336<\224\275\014;\330-\255\274\320\346\267\274\3111\374\274(\036\210<\325\223\254;.\337\327<\332\321Y=\001\200\233<\326R\323\274,\273<\274B\230(\274LY\035<m\317\016\275\270\217\316\274\275\033\277<Cp\334\274\226n\307\274\2706\001<D\036m<f\344\260\274iG\251<\335\n\307;Y\216^\2737\313k\274\275&\265\274p\313Y\273\213\211\036;\217\251\236<KD\271<\304\324)<)\366a<H\002\260<\340\226\361;\346\221\303<\337#\337\2748e\004\275=\254\'<3E:<!\326\261\273\024wv<~\232\312;dv\227;\306xq\274\221\307y\274.\372\021\274\337\002\250\273{\252Y;^P\327< ZZ<\207\246\017=\227\312\007\274\370c\234\274\210{\243\274\350\221\250;\021\221V;AMD\274M\344Y\271\304\017\217<xX\273\274\361\245\370;\004\177\253;7c(<q\336)\273\233M\231<{\252-\275@d\262<\340\212@\274\013\361t<\273+\365\273\271d<\275\2178\317\274c\367\272;\244K\212\274\007N-\274TV\263;\341\221\203<\265[\220:\030\200\177\274g6;:\304w\273\274F\334\317\273\225\326\266\273{+\232:\336\"\206\274\223:\317\273v\t\251\271\2074I<\362\246x\272\017\210\320\273~@\207\274n\3371<\014\316\226;\257\271\265\274H\255\301:\317\322\346:O\025\200\274\270dj\274 ,M\274x\220\311:\252da\274\272>\316\273i\343e<\324\327\267\2719w<<\027D <\230\200<<y\257\r\275\307\027B;=\253g<\304\307\215<5\223%<\203m\367;:\375\357;\025\331\220;pb\2008\210\262\247<\334?\n:\225}\321\272e\0131\273\362\262\363;\037S <\255\310*=\364\n\215\274[\267\326;\243\307\253\272Pl\330\274\377,\027=\252\247\016=_\310\343;s&\251\273\247\212\202;\320\270[<\303\221X<\030X\366;nw\347\273~ \006<\005\230\370:}\361Y\274V\254\374;\3610\333\273\214\322-:\310\331\371;\303\323\342\273\t\264\333\273T\r\322\272c\027\235;\361\226m\273P\270\217\274\010\372y\274V\227\305\271G+0<K3\253<\001\351k\272D\037\200<\231\305\354<%GH;\216\300D:\033a\213<i\024!\273\n\"\260\274e,\210;}\237\255\274\266\324\000<~\240D;\255\"\252;S\361\266;%\362\316<\023U\217\274L\327\270<\352\350M\273\323\212<\274)\317\235;\017\220\343;\002\017>\273\244\307\244<}\324\303<\352({;{\3138<\205\022\001<\357\224\006\274\300\322\252\274U\253C<\221S\251;\312\221\203;\016\262<<P\037\300\274)\252M\274r\274\250<\353\'\265;\347\205g;/\273\236<x\327\362\273\265\362\215<\250\341\310<\344L\232;&a\304\273\326\247\210<\342<\033\274\224\257\337\2743\245\026\272\\\002P\274`[\261\273\327*R;[\275@<`/\320;\370=*\274\014a\367\273Qn\001<m\225\034=\334 P;\260\016\307\274\223\254x<\001\263|:/\340\003<=\3705\274\2007\365<\357\204L\274:\337d=:,$<\357\337\344\274U\021\252\274\3162\254\274LwW:\017[\241\272\247\201%\274\310Q\003\275\305(\266;}\330;;e\r\225<\200\314;\273\021\320\335\272p\261\r<\027a\357;\225\026\345;\263\240\201\274\013\377p<g\374p<\340\332\201:\211l\236<\301\010\274\274AV\300<\367\314\332\2743I[\273\333\205)\272\010\023\214<\355\033;\274N\020x\274_f\211\274\323\371\352\273\231\2708\274\245\222n\274\344-\357;%\216\251\274 \311\022<\302dv<H<\003\273\025\221&<\225K\235\273T\300\245\273?\200t<\206\214\3149(-\312<\253o\216\273\'\230F\273\231\"\021=\350\215\247\274\264\314\302;}\324\253;\257\303\264\271\031\301o;\220\226\006\274\357\332b<~&\261<\036a*<v\370\001\275\002\237\371:\330K:\274Rk \273\366\333\362;\277\227\250<\037J%\274\314\362\347<\237\001\321;\003t\332\274%\017\206<[\252\301\271;\203\257<\026\352\201:\205\3738\273\263\325i;k\231\002\275\347\376 <\317\272W<\010\031;\273\373\353f\274\360Q\320\272\355\270\000\272\351\251\200:\305H\215<\r\311\240\270\341\177\023<\311\357\313<n\335r< \300y\274\314\346\365;\373\206\265<\322S\210<\272\2465\275\tS\327\273\004n<\2746\364\272;Q\222\340<Bc%<\267\021\261\274\226t\371<\355Y\322;\006\004\213\274;\374\006\274k\252W\275\330\301\307<I\027\340\2732)\r\274\353\250\2369(\376v\273\253\212\214\274\320\344\034\274\037M\235<6,\204<\022u\331;\256\\\021\274\2613\221<8\240\030<\034g\222<>+R<\005\373\021<\270\035}<\242\310\233:\\\363\000\274|!\304\273\325\361\344<{+r<2N\223\271G\302q\273\203\224G\274\220t\306<\241c\010\275\301\006\220\274>\277\213\2741$\214<[\022\364\272\233*w\272U\364\274;\n\335\216\274\262\255\022<\253\377\030<\367vo<7\224\307<\303\261\276<+^M<\324\344w<\027\302|\274\2304\342<\tx,<H\267\3149\223P\036\273Y\265\322<\3442\353\273\200\004I=\023]=\275y\257=<!\357\006=\235G\000\273_\233G\274\376\307\303\272\237\321\302;1;\246<\020\336\363<\025\355\200;\317]\216\273\377\350T\274\355\010\205<\200\323\311\274+\364\200\2740+L<\241\347\003=\227\243\213=2\235\003=\374f>\275\371EE\275\363\211\030\275\177\344\177\275\220\272=\274\310\323\301<11\341<,\2121;\200\370\204:d\220\r\274\372\304%<\267\215\232<\376\274\245<\271,Z\272\335v\t\274\365\252m9i\341\321\274\002\232\201<(U\237\273wT\036\274P<\243\274\356d*<|I\355\274\263\351\204\274\325!_\274S\353\006\275\313\273+\275\214\324\314\274\207\353\375\273\366\306T<0\236\206<\2608S\274\366\231\361;\002\325\347\274<m\220\274\007n\317\274\034\330\232\274%\372P\274\267\211\263\274\265F\223\274,\321\276\274j\345\351:\345x\305\273D\266\355\274\224\2715\274U\341\010<\307\231W\275\364D\343<\023\246Q;\265I\t\274\013N <\2030\336:\327\252\315\274\236\304\340<7\240\341\273g\327e;)>\240\274\\\317\001\273\301&\005\274\336\006\331<\300\016\t\275\1775\020=@\325\3178\251r\251:\023\302?<\220Lr;\357\376!=\204pO<F\266\255;\017~.\274\367$\275<\364\202\033\275\333\327\332\274H>+<\207w\334\274\337M\276\274\271\251\372\274\313\006\357\272\213\222*\274\211\261\222< \373L=n\363*=\351/7<\223\374\216\274\340;7\275\343\013\031<(\033\324;,\266\320;~x\217<\366\242\250;U\201\003;\n(\\\2745\215\240\273c6j</\023\231<\021%\242\274e\010\314;\233\202\217\274,\245x\274B\272\214=\030\370j\274\213{\31490S\013\274^\272\025=#\022\r\275\037;\027\274\022\340\036\275{a\266;\371\210V\275_o\256\27421\367:f\325\301\272\245\265\036<AH\302\273\373\025\'\274\356\266\263\273\032\372\242\274^\370\314\272RK\2319WGf\274\017\375{\273\271\272\352\274\357N\034\274\021\211}<\361\235\267\273\261\363\t\274\226u\316\274\371\300\034\275\240\312i<\344\332\271\273\205%#<\235#4=\337\026\000<\222?\267\274kl\344\272\320\350\335\274\271\317\005\274\204wJ\275\243\031S\274\353;\340;\234%\260\274\221\260\217\2734\037\214;$R\006<c\3446\274\344\312\244;\324\203\303;\372\342\263:\377%|\274:\004s\273\272Y\303:\033\354,\274Sm\230<W\271\247<\274AT<\377q\257<\340x\257<\247&\226<\006^\t;Q\250\232\274\340\311\026\274\245\331\340\273m\306\345;Sl\201\273\356]%<\252\306f<)\372\305\273\310\253B\272\275\036\321\274\372t\315\273\333r\221\274+\177\354;\330\250\240<\250\263\362;N\234\246<E\236\343\274\"\254D<Iu,\274\314F\227;\227\3561\273\307\302U\273\021\230\266\273v(\345\273\005\207\323\274\206q\311\274\305\274\211:/8\003<\205\005\373\272\313\222\202<\222\311\311\274\312\304\016\274kp6\274\344\327\375:\343S\230<Z@\001\275\014\362\250\274\270P\n<\365\005\n\275\257\214\371\273G\276\014<\206n^\274D\304\200\274\220\034\024\274_\205 :~\026\302\274\253\367\265\273Hp)\274x=\365<\016\210\332\274@7\n<\343\257\330\271\261l\014=wAC\273T\252\261\273q/\205\274\010\373\310\272\353P\311:H\210L\274\222^\257<\211M\237;\027\023\260;\265\000$<\n\342\002\273>\000\233\273\226\300\260\273\261\232\014\27584\301\272\357\365\226\274\266\333\325:\274\"M<a3\261;\255;\322\2742\032><\035\350\036<Q\025Z<\036\325\210<\035\314b\274\024\370\r;/\263\274;\341D\026\272%O\n=t\024\004<\314b\020\273 \214\213;\223N\017<\005\262[<\214\210+=\3229\261\274]@a\274\007\277\006<\324\366^\274\267s/=\341W\254<\364\374\005\274\016\345\024\274,C\230\273z\332\254<\300\337\313<u\333\256\274:\373\263\273\274\2751;\r\300\"<G\364\n<%\264\370;\037;e\274\332T\225\274\362\263;\274{\226\\\274\212\262\207\273\031bM\274=(;\272K\2401\272m\r\3649%\336\350:\265ey\273\"\330\234<N\271\020=\342\014\365\273Q\271\351<\234\211f<\251\233\241\273\206C\241:\204\355P\273\203I\023\273\002t\341\273\216\363b\274-b#\272\265Sb\274\304w?;B\242\230\274\023Q\267:tF\223<\323\273w\274\276a\377<O\302\236\274\355{%\273\205q*<X\276\034<\230;N\274\017\226\005=\314V\353<\204\374\265;wE\014;\010\275\017;\246\270\254\274\246c\034\274aR\264;\010\031\264;\217}-<\351\221\r\274\t\244\006\275\"\n\336\274\350\024N<\353\344S\273\226\240\223<\346\221\263<\256\275\322;\310\271\016<\240\331\310<|\222\347<\024\220u\274\314\225\243<7\363\332;\334u\201\273`\233\034:\322\253\245\272\237\245\235<\343Z\177;=\256M\271M\021s<\347\3772\274\300\266\036<z\2324\273|\213\277<\337\341\240;\2638\023\274\374\246\367<\320\237\340;\006\271n\274\240}\033\274u\247?=\322\216\204\274\300\031Q=$\327\241;K5\306\274\236\200\255\2748\260u\273?\022S\274\363D0<\tnW;\207\363\374\2747\252\275;w\253d\273\315\300]\274\021\275\003<R\020\211\274_O\014<BJ\013\274\254.\215<\302\241\317\273\336N\202<\360\251\307;\332d\264<\340\034\035;\247z\324\274?(\266<\265N\221\274\022o\347;\263\217\212\274\251\001\332<\237\244\212\274\340\330E\274-wG\274\214p\224\274\364d\205;A\263\210\274h\2756\273)\271\313;\331\236\310;?\021~\273$\314F\274\177\317\301;\326\321\257\272\320F\307\273\233{-\274\315[\t\274\375\177\301<rV\263<\r3\316;s\n\251<\376\016\\\274\206\021:<\270\005{\273W\312f<\010y\225\273\370j\030<\216\376\014<\'\355\240;((\234;\253\034-;mw\222\274M\213\311<\224\310\201<\370\223\316\2736\302\306<\207\273\310\273\230\327B<\006\226\304<\013L\031\274\371\337\253<`\nH<sI\006=\325\372\275\274nHY\274b\223>:\345\253V\274\330\201\375\273b\213V<x\2159<\262\220\367\273\023LK;f\245\024\274>\032\216:\362B\031<\211\3507<\246\330\266:H\013\372<\3213w<\361\332=\272\020\014\017=\310\326!<\203\036\217\274\311Y\026\275]J\240\274\363\356)\274f\341\211<\373m\027=\255_\256;\036>Q\274\222\207\345<\371p\211\273gm+\274\324\310\345\274\200)\020\275\354\206\026=\273\344\204\272\233x\363\274\234\215\310\274\274\000\201\273\233p\274\270\3716\200\274\034\306\342<\275\366\010;\360w[<\257\013o;2\336\227<\241aN<X\335T<\227\001\003<B:\261;u[\236<\335w\203\274\247\3205\2746\220+\274\257\007\213<\tE}<s\355\206<g&\214;t\010\013;U\226\251<\356\241\233\274\3054L\2740\237\374\274g\360\243;\243\212k;\375\006\226;I\203\n\274\277P\364;\302W\243;\363i\202\272\252u\301<>\371\007=0\242\021<\014u\203<\036\346\010<\330\0278\273\242\313#<\271R\n<\322\246\372;\316\022\036\273<\332\201</n\025;\251\005<=I(\307\274\321s\2679\225\006\215<[*\256;a\344\200\274\023\352\010\274x\340\177<\226l\n=X\236c<\263\3074\272\343K\220<c\'U\274R:O<\275Lx\273-ZR\274\353s\021<]\242{<E\225\203=S\360\014=\014\2756\275\377\266N\2753\3312\275\013/(\275\213S\246\274R\227\332<\'\021r<\333\013\227;\253\010~<g\265\274\273pB\013=\312m\207\272\232\235\'=>\304\275;J\013\340\273D_&;\017\372x\274G)\225\273\216\332\031\274\347\217\202\274\206\227 \275M0A<%\242\027\275\221vW;\326\177!<\255:\016\2757\371\r\275\n\025\325\274\306\361G;2\240\004<\315z\t<\355\226\254\272,\344\257<\207*\350\274\215\002\223\274,\377\316\274hl\203\274[Ax\274\036\244\322\274\317\261\024\275P\'\274\273\017\'\'\272\n\251\264\273j\032\360\274 ;\332\274\321n\354\273X|\205\275\315\000\254<\307i\006<\0229\030\273\270]\374;\212V\010=\327,\220\273V\033\332<6\274\354:\214\366\366;M\355\310\274\341\246r;by\n<\002\305\202<X\017\266\274\024\364\337<\242L\271\273\2722\332;\263\"\250<\333@,:\361\222\024=dc\217\274\037\202v\274R\3240<b\254\373<\260\034\301\274\213\342\373\274\211\347\250\273\346g#\274\245\344\274\273\271\013\302\274\025\t\030<\002\224\262\274\010=#<}\343\013=(\205\020=\003\253[<\222\242\271\274\255g\003\275_Y\316\2741Jg\274\341\275$<\016\346\244<\334;\377<\336\254&<]\nF\2743\224\243;\t\372\241;\010\247\235<w\2706\274\232\377_<\26031;\276k\361\273\230+C=\227=\032\275A\343+\274\345\267G;s:\271<\372\364)\275S\206\362\273\312\331\214\274^!\272;\3324\r\275\363h\005\274\341\3251<\313\247F<\270\206z\272\"\377\241\274\225\347\316\2743\001;\274\323MX\274\022\303\310;AB\234<\250\254\355\272\3101\006\273Y@]\274\262\354Q;\341\272\315<\006\205\177\274\301\203\245\274%w\023\275z0\035\275\031,d<\014\264\021<\265\032\221<\351\357n=(\273\340<\322`\020\273\374\327~;\354\255\363\274R\344\254\274\275\242\023\275n\021`\272\275+\035<xc\t\275\320\'/<6B9<}\332$<\240t\343\272z79;\203\242\'<\367\362_<-\024r\274\177D\025\274\357UC\273\333\217><\277\210\353;\005\242\213<\226k_<\t\037;;\225g\007=\022\335=:D\2553<\333\320\311\274\\,@\274)\272D\274K+\215<\014_V<N\313\037<Z~~<1\346Y<\376\232o<\014,\211\273TG\035<\300X6\2731Cj;\233BS<q\365L;\304AH<\022y\233\274\200\373\"<gI\236\273\327\362\265\273\207\340M\274\350\356r\273\023\264\213\273\372\022Y<\221c\234\273\365\375\225\273\r\353\310;\326\232~\273^\303\252;}Y\236;\0054\205\274\321\037\250;B\031\336\273\205\315\324<@s\245;f\342S\275a\227\276\274\36077<\266\245\333\274\312[=\273\276\3738<[\215\270\274\177+\240\273\2259Z\274\335\302\223\274:\217\001\275u\3630\2744\323\2528\240\241\367<\215/\206\273\273\336\232\274\"\256\006\274\037 \306<\242>Q8\274\243\317\273\372\203\321\273\013<\000<:{\232<4\312\277\273\245\340\014\273b\261$\274\304!^\273\r!\272;!\336d<c\265v\274\365j\343;\204&\261\274<\226\233\274\321\235\222\274\362\320\r;Q\237\022<\325\217\252\272x\312\005\275\2640Q\273\347\227(<\302h\010<\220\2512<\374\213\004\272d+\331<u{\351\273\\\007\333\272\356\204\010=\244\211\236;F(\031;\247\224J;qZ)<\235.Y<M\004-=\2709\235\274\027l\326:.\217\306\2733R\\\274m\340p<\321\261w<S\20609\375\214\026\272\322)!;S\014\331<{\245\204;\343Os;?3*\272\336\214\\\273p\000\232\274\261\211\301;Zb\244<\200\232\327;[%\023<\304)u;j\310b\2732\352q\274\3722\n\274\322\233\314;\276\020$\272\222\251\226\273/\306\217\274\'qF\273\313\243\026<\033\272;=\260s\n<\345Z*=\000\210\266;/7\371\274\372\212\003\274UA\374:\345\230\n\273\351U\266\2725s9<dE\313<\345\377N<\371\306\335\273\357\376c<\024\364c\274\355\372\030<\300\257\024<\254\217\324<\377\"\007\273i\n\216\274z\377Z;\251\\\030=)p\262;=\204\362<A\215\000<+\332\004\274\215m\'\274\031\305\267\273k\256\017\275z\243?\274?\254\217<\256\023R;\266I\372<\326\345m\272\266p\000\275\232\200\263\274\020\022\302;\307e\213<\013\231\206<1CH=\242\3314<\374\335k\272\256\014\244<\341\330R\272\347\2579\274\017}\261;+F[<^\264\227\274\213\023\240\274\001\337E\272>\001 \274lRG<\350e\210\273.)\336<\005-K\274\272\n\211\274\303\270\236\273T\010\252\273\247\226)\274Q\3307;\267\335\314<\013\247\252;u\356\211\2733\t\334\273I@\377<\016\324\364\270\335\375O=\306en<\215\001\324\274\274\317|\274\261\030%\274H\323Q\273Jc\310;D\350\234<-\305\261\274\r\033\322\272\023Z\256\272N\211\250\273~M\237<\262$\023\274j\201D\272\214\320G:\232\272\\<b\025N\274\206N\301;8 !:\236T\n<(a\373\273=v\341\274\332a\254<a\001r\274\251\256\217<\354\301\211\274\277A\220<\305z\224\274i\034\031\274S9\253\274\260\014\260\274\336\225\334\272xI\256\273\222\233\022<\326\304\233;\357\021;:Ls\266<\205\365\367:x\221\270:\362\266\343<\265\2331\273\367)&\274\005\370\265\273\224\021\330<@\347\371;9\236\032<\021\301;<\341\224\001\274Cf\377\271\235)T;\333\022G\274\311\332\006\274\356(#;\366\250\204;\343J\365;\035\'\007<<\351\320\274\252U\240\273\207\335}<<\263\223<\341\"f\274XJ\240\273G\032^\274\006j\361:\310\311\005=\237\004F\2748\267\323<\375|\231;\0318\370<\332\243\017\274\367\346\203<@{\217\273\366K\214\274\000\023\243\273\311\326\204<\337#\211;U\263#\274\n\267#<\324\244Q<\242\2012\273)\306\302<\177\013F\274\000\335\200<\000\361e;q\220:<\222hr<6\353\207<\256Po<\330\033q\274\360\320n\274\204\335\204\274\"\010:\274L\317n<\320\376\030=O8\235<\314\033\216\274\312+\333<\266\215\3438m\025T\274\233D$\274dj\303\274\304U\025=\026\002\253\274\026.\306\274\300\216z\272\314\3666\274\370\274Y\274\030\022\252\274\213\004\351<\331\213-\274G\336t<l\260K\274I\347\t<{!\324<:q\024<rc\037<pX\261\274^T\305</\365\245;Z\027\320\274\027U\256\274L\230\354;\306\226\316;\241@\212<k\346\263<\276\273\t\274\376#i<\243\217\246\274B\034z\274\302\010\317\274\334\"\332\273\261\177}\273\023\244h\273\016\225\205\274\363\261\200\273\263h\213\274\360\230\005;\036\242\213<\235\232\305<\0212\222\273\333\345\300<\265\253p<x\264\221\273\212\300\362;?O\244<\221\240\331:\377/L\274\264\007\377<;\016\261\273T\362\035=Y\251E\274a\334\316\274\222\034\264<v\335\017\274\376 \212\274\361\206{\274\213\234\216\273\311\356\007<\205d\351;\232}d<\346\375\221<\230/N;*|4<6!\333\273\350= \274B\361\002=A!\256<4\002\032=`G\270<\313\332\317\273\245\343,\275\345\345y\274\204\330A\275\035\343\252\2748Y\237<\333N\261<\325m9\272\3369\003<\023\232j\274\236A]<F{\260<`\0241=\303\017\321;\211\373\242\274tR\275\273L\236\253\274\256H\214;gW\357\272n\243\276\274\301\322\002\275\240g\006<\007_\315\274uAx\274\035\325\343\273\210w\326\2747\212!\275c\336\\\274\1771\337\274\316P\032=+\232\225;\304\322S\274\245e\357<\312\230\241\273\304\376I\274\320\231w:\3137 <\005\374\345\274\004Y\n\275-\254w\274\314\347C\273\336\307%\273\022\237\356;g>!\275_8\037\2757\332.\274\362\204\366\274\232\226\004=V\335\272\274\013\004\277\273r\355E<\010p\004=\021\352a\273\360\264\253<\010\023\325;?\031\370\273\214\303t\273\264\010\361\273\227\342w<\306\357\036<\270\225\356\274\367\273?=\350N\226<\304\305\217<;\366\347;\275_U<\235>\357<\274D\t\274\370W\241;v^\266\273\201\374~<\337\224\317\274\371\373\032\275z$\203;\361\253\006\274\371\275d\274\300/ 